{
  "version": "1.0",
  "truncation": null,
  "padding": null,
  "added_tokens": [],
  "normalizer": null,
  "pre_tokenizer": {
    "type": "Sequence",
    "pretokenizers": [
      {
        "type": "Split",
        "pattern": {
          "Regex": "\\p{N}{1,3}| ?[^\\s\\p{L}\\p{N}]{2,}[\\r\\n/]*| +(?!\\S)"
        },
        "behavior": "Isolated",
        "invert": false
      },
      {
        "type": "ByteLevel",
        "add_prefix_space": false,
        "trim_offsets": true,
        "use_regex": false
      }
    ]
  },
  "post_processor": null,
  "decoder": null,
  "model": {
    "type": "BPE",
    "dropout": null,
    "unk_token": null,
    "continuing_subword_prefix": null,
    "end_of_word_suffix": null,
    "fuse_unk": false,
    "byte_fallback": false,
    "ignore_merges": false,
    "vocab": {
      "!": 0,
      "\"": 1,
      "#": 2,
      "$": 3,
      "%": 4,
      "&": 5,
      "'": 6,
      "(": 7,
      ")": 8,
      "*": 9,
      "+": 10,
      ",": 11,
      "-": 12,
      ".": 13,
      "/": 14,
      "0": 15,
      "1": 16,
      "2": 17,
      "3": 18,
      "4": 19,
      "5": 20,
      "6": 21,
      "7": 22,
      "8": 23,
      "9": 24,
      ":": 25,
      ";": 26,
      "<": 27,
      "=": 28,
      ">": 29,
      "?": 30,
      "@": 31,
      "A": 32,
      "B": 33,
      "C": 34,
      "D": 35,
      "E": 36,
      "F": 37,
      "G": 38,
      "H": 39,
      "I": 40,
      "J": 41,
      "K": 42,
      "L": 43,
      "M": 44,
      "N": 45,
      "O": 46,
      "P": 47,
      "Q": 48,
      "R": 49,
      "S": 50,
      "T": 51,
      "U": 52,
      "V": 53,
      "W": 54,
      "X": 55,
      "Y": 56,
      "Z": 57,
      "[": 58,
      "\\": 59,
      "]": 60,
      "^": 61,
      "_": 62,
      "`": 63,
      "a": 64,
      "b": 65,
      "c": 66,
      "d": 67,
      "e": 68,
      "f": 69,
      "g": 70,
      "h": 71,
      "i": 72,
      "j": 73,
      "k": 74,
      "l": 75,
      "m": 76,
      "n": 77,
      "o": 78,
      "p": 79,
      "q": 80,
      "r": 81,
      "s": 82,
      "t": 83,
      "u": 84,
      "v": 85,
      "w": 86,
      "x": 87,
      "y": 88,
      "z": 89,
      "{": 90,
      "|": 91,
      "}": 92,
      "~": 93,
      "¡": 94,
      "¢": 95,
      "£": 96,
      "¤": 97,
      "¥": 98,
      "¦": 99,
      "§": 100,
      "¨": 101,
      "©": 102,
      "ª": 103,
      "«": 104,
      "¬": 105,
      "®": 106,
      "¯": 107,
      "°": 108,
      "±": 109,
      "²": 110,
      "³": 111,
      "´": 112,
      "µ": 113,
      "¶": 114,
      "·": 115,
      "¸": 116,
      "¹": 117,
      "º": 118,
      "»": 119,
      "¼": 120,
      "½": 121,
      "¾": 122,
      "¿": 123,
      "Â": 124,
      "Ã": 125,
      "Ä": 126,
      "Å": 127,
      "Æ": 128,
      "Ç": 129,
      "È": 130,
      "É": 131,
      "Ê": 132,
      "Ë": 133,
      "Ì": 134,
      "Í": 135,
      "Î": 136,
      "Ï": 137,
      "Ð": 138,
      "Ñ": 139,
      "Ò": 140,
      "Ó": 141,
      "Ô": 142,
      "Õ": 143,
      "Ö": 144,
      "×": 145,
      "Ø": 146,
      "Ù": 147,
      "Ú": 148,
      "Û": 149,
      "Ý": 150,
      "Þ": 151,
      "ß": 152,
      "à": 153,
      "á": 154,
      "â": 155,
      "ã": 156,
      "ä": 157,
      "å": 158,
      "æ": 159,
      "ç": 160,
      "è": 161,
      "é": 162,
      "ê": 163,
      "ë": 164,
      "ì": 165,
      "í": 166,
      "ï": 167,
      "ð": 168,
      "ó": 169,
      "Ċ": 170,
      "Ġ": 171,
      "Ģ": 172,
      "ģ": 173,
      "Ĥ": 174,
      "ĥ": 175,
      "Ħ": 176,
      "ħ": 177,
      "Ĩ": 178,
      "ĩ": 179,
      "Ī": 180,
      "ī": 181,
      "Ĭ": 182,
      "ĭ": 183,
      "Į": 184,
      "į": 185,
      "İ": 186,
      "ı": 187,
      "Ĳ": 188,
      "ĳ": 189,
      "Ĵ": 190,
      "ĵ": 191,
      "Ķ": 192,
      "ķ": 193,
      "ĸ": 194,
      "Ĺ": 195,
      "ĺ": 196,
      "Ļ": 197,
      "ļ": 198,
      "Ľ": 199,
      "ľ": 200,
      "Ŀ": 201,
      "ŀ": 202,
      "Ł": 203,
      "ł": 204,
      "Ń": 205,
      "an": 206,
      "Ġt": 207,
      "er": 208,
      "in": 209,
      "en": 210,
      "Ġs": 211,
      "Ġa": 212,
      "at": 213,
      "Ġth": 214,
      "Ġm": 215,
      "Ġd": 216,
      "Ġp": 217,
      "on": 218,
      "Ġb": 219,
      "ar": 220,
      "al": 221,
      "es": 222,
      "or": 223,
      "it": 224,
      "Ġthe": 225,
      "Ġw": 226,
      "is": 227,
      "Ġc": 228,
      "as": 229,
      "ing": 230,
      "Ġo": 231,
      "ed": 232,
      "ang": 233,
      "el": 234,
      "Ġf": 235,
      "Ġh": 236,
      "ou": 237,
      "Ġan": 238,
      "re": 239,
      "Ġk": 240,
      "Ġin": 241,
      "em": 242,
      "ak": 243,
      "am": 244,
      "un": 245,
      "Ġy": 246,
      "Ġto": 247,
      "Ġl": 248,
      "ah": 249,
      "il": 250,
      "Ġand": 251,
      "Ġof": 252,
      "ic": 253,
      "om": 254,
      "et": 255,
      "us": 256,
      "ad": 257,
      "ent": 258,
      "ion": 259,
      "kan": 260,
      "ĠS": 261,
      "Ġn": 262,
      "ur": 263,
      "id": 264,
      "ĠA": 265,
      "ut": 266,
      "ĠT": 267,
      "eng": 268,
      "ay": 269,
      "Ġg": 270,
      "ĠI": 271,
      "ro": 272,
      "le": 273,
      "âĢ": 274,
      "ap": 275,
      "Ġdi": 276,
      "ĠP": 277,
      "ĠM": 278,
      "ik": 279,
      "Ġyang": 280,
      "ot": 281,
      "ec": 282,
      "im": 283,
      "ir": 284,
      "ac": 285,
      "Ġr": 286,
      "ol": 287,
      "ul": 288,
      "ag": 289,
      "ers": 290,
      "Ġe": 291,
      "uk": 292,
      "ve": 293,
      "Ġis": 294,
      "ĠC": 295,
      "Ġyou": 296,
      "Ġon": 297,
      "ĠB": 298,
      "Ġdan": 299,
      "Ġse": 300,
      "Ġfor": 301,
      "ow": 302,
      "os": 303,
      "Ġre": 304,
      "Ġbe": 305,
      "ly": 306,
      "ig": 307,
      "Ġit": 308,
      "Ġmen": 309,
      "um": 310,
      "ya": 311,
      "Ġj": 312,
      "Ġst": 313,
      "ĠTh": 314,
      "ain": 315,
      "ĠD": 316,
      "Ġwh": 317,
      "Ġun": 318,
      "Ġper": 319,
      "Ġthat": 320,
      "Ġmem": 321,
      "Ġber": 322,
      "ith": 323,
      "ab": 324,
      "ation": 325,
      "ter": 326,
      "ep": 327,
      "ver": 328,
      "Ġat": 329,
      "up": 330,
      "ere": 331,
      "Ġal": 332,
      "Ġwith": 333,
      "th": 334,
      "ch": 335,
      "Ġpro": 336,
      "ud": 337,
      "âĢĻ": 338,
      "ĠH": 339,
      "eb": 340,
      "ĠW": 341,
      "nd": 342,
      "Ġas": 343,
      "ĠK": 344,
      "ai": 345,
      "if": 346,
      "ess": 347,
      "and": 348,
      "end": 349,
      "ĠR": 350,
      "Ġor": 351,
      "est": 352,
      "Ġ(": 353,
      "ant": 354,
      "ill": 355,
      "ia": 356,
      "ce": 357,
      "ari": 358,
      "Ġad": 359,
      "od": 360,
      "ĠF": 361,
      "Ġter": 362,
      "ri": 363,
      "ĠL": 364,
      "Ġmeng": 365,
      "ih": 366,
      "tuk": 367,
      "ĠN": 368,
      "st": 369,
      "Ġcon": 370,
      "op": 371,
      "Ġare": 372,
      "ĠThe": 373,
      "ara": 374,
      "ok": 375,
      "Ġuntuk": 376,
      "ti": 377,
      ".Ċ": 378,
      "ada": 379,
      "Ġne": 380,
      "ung": 381,
      "Ġv": 382,
      "alam": 383,
      "Ġcom": 384,
      "ist": 385,
      "ek": 386,
      "engan": 387,
      "ĠJ": 388,
      "ate": 389,
      "aw": 390,
      "ĠG": 391,
      "per": 392,
      "akan": 393,
      "Ġsh": 394,
      "ĠâĢ": 395,
      "nya": 396,
      "igh": 397,
      "aj": 398,
      "ĠE": 399,
      "ian": 400,
      "rom": 401,
      "ld": 402,
      "Ġdengan": 403,
      "ave": 404,
      "ust": 405,
      "Ġex": 406,
      "ĠO": 407,
      "ct": 408,
      "20": 409,
      "Ġch": 410,
      "ber": 411,
      "au": 412,
      "ore": 413,
      "ear": 414,
      "ity": 415,
      "Ġwas": 416,
      "ub": 417,
      "ort": 418,
      "Ġke": 419,
      "qu": 420,
      "ect": 421,
      "Ġyour": 422,
      "art": 423,
      "alah": 424,
      "Ġ-": 425,
      "Ġnot": 426,
      "pl": 427,
      "Ġini": 428,
      "Ġhave": 429,
      "Ġcan": 430,
      "oc": 431,
      "Ġdalam": 432,
      "Ġtr": 433,
      "Ġthis": 434,
      "asi": 435,
      "Ġus": 436,
      "uh": 437,
      "âĢĻs": 438,
      "--": 439,
      "Ġfrom": 440,
      "ine": 441,
      "ip": 442,
      "aan": 443,
      "ĠU": 444,
      "Ġby": 445,
      "iv": 446,
      "Ġwe": 447,
      "og": 448,
      "ew": 449,
      "ight": 450,
      "ĠAnd": 451,
      "ug": 452,
      "ial": 453,
      "ong": 454,
      "..": 455,
      "ff": 456,
      "all": 457,
      "ies": 458,
      "our": 459,
      "ĠIn": 460,
      "Ġhe": 461,
      "ard": 462,
      "Ġwill": 463,
      "Ġpl": 464,
      "ama": 465,
      "ment": 466,
      "ind": 467,
      "ell": 468,
      "Ġdari": 469,
      "ost": 470,
      "Ġab": 471,
      "emb": 472,
      "angan": 473,
      "ome": 474,
      "ast": 475,
      "idak": 476,
      "ib": 477,
      "out": 478,
      "Ġwor": 479,
      "ack": 480,
      "any": 481,
      "apat": 482,
      "ould": 483,
      "ive": 484,
      "Ġsp": 485,
      "Ġap": 486,
      "Ġseb": 487,
      "ide": 488,
      "ure": 489,
      "Ġhas": 490,
      "gh": 491,
      "Ġall": 492,
      "Ġgo": 493,
      "atan": 494,
      "amp": 495,
      "leh": 496,
      "'s": 497,
      "ens": 498,
      "Ġpr": 499,
      "eg": 500,
      "aya": 501,
      "ka": 502,
      "Ġmemb": 503,
      "Ġtidak": 504,
      "ukan": 505,
      "ual": 506,
      "Ġdo": 507,
      "orm": 508,
      "ous": 509,
      "âĢĿ": 510,
      "ĠY": 511,
      "Ġser": 512,
      "ĠAnda": 513,
      "Ġbut": 514,
      "rou": 515,
      "Ġme": 516,
      "act": 517,
      "ice": 518,
      "Ġac": 519,
      "Ġpen": 520,
      "adi": 521,
      "asa": 522,
      "Ġdis": 523,
      "ĠâĢľ": 524,
      "ev": 525,
      "Ġmel": 526,
      "Ġpeng": 527,
      "uan": 528,
      "one": 529,
      "av": 530,
      "ays": 531,
      "Ġup": 532,
      "Ġthey": 533,
      "imp": 534,
      "Ġmak": 535,
      "Ġso": 536,
      "aran": 537,
      "ich": 538,
      "ions": 539,
      "00": 540,
      "Ġag": 541,
      "Ġres": 542,
      "her": 543,
      "Ġitu": 544,
      "ame": 545,
      "ana": 546,
      "Ġout": 547,
      "Ġtheir": 548,
      "ook": 549,
      "ans": 550,
      "iz": 551,
      "uc": 552,
      "ail": 553,
      "age": 554,
      "Ġakan": 555,
      "ef": 556,
      "Ġatau": 557,
      "Ġmore": 558,
      "int": 559,
      "ime": 560,
      "very": 561,
      "oun": 562,
      "Ġkep": 563,
      "ach": 564,
      "able": 565,
      "Ġcont": 566,
      "ĠSt": 567,
      "ks": 568,
      "ikan": 569,
      "ical": 570,
      "Ġ\"": 571,
      "emp": 572,
      "so": 573,
      "Ġadalah": 574,
      "Ġint": 575,
      "ated": 576,
      "Ġsa": 577,
      "Ġpada": 578,
      "ike": 579,
      "Ġmy": 580,
      "Ġcl": 581,
      "ĠCh": 582,
      "Ġone": 583,
      "ese": 584,
      "ence": 585,
      "uat": 586,
      "ua": 587,
      "Ġmas": 588,
      "ata": 589,
      "ob": 590,
      "ther": 591,
      "Ġbah": 592,
      "form": 593,
      "ents": 594,
      "Ġar": 595,
      "agi": 596,
      "ry": 597,
      "Ġabout": 598,
      "ereka": 599,
      "ĠV": 600,
      "Ġhis": 601,
      "Ġen": 602,
      "ov": 603,
      "ite": 604,
      "anya": 605,
      "Ġcomp": 606,
      "Ġmenj": 607,
      "arg": 608,
      "ely": 609,
      "ign": 610,
      "ĠIt": 611,
      "Ġsel": 612,
      "elah": 613,
      "ue": 614,
      "Ġinc": 615,
      "Ġour": 616,
      "Ġwho": 617,
      "agai": 618,
      "Ġoff": 619,
      "Ġdapat": 620,
      "port": 621,
      "ebih": 622,
      "Ġtak": 623,
      "19": 624,
      "amb": 625,
      "Ġset": 626,
      "Ġpem": 627,
      "Ġsem": 628,
      "main": 629,
      "ish": 630,
      "ance": 631,
      "are": 632,
      "Ġ|": 633,
      "ingg": 634,
      "ons": 635,
      "ase": 636,
      "ult": 637,
      "ations": 638,
      "201": 639,
      "----": 640,
      "uga": 641,
      "Ġwhich": 642,
      "Ġmereka": 643,
      "ond": 644,
      "ra": 645,
      "ose": 646,
      "Ġalso": 647,
      "reat": 648,
      "Ġev": 649,
      "Ġmeny": 650,
      "ary": 651,
      "ace": 652,
      "line": 653,
      "Ġker": 654,
      "Ġsec": 655,
      "Ġam": 656,
      "Ġqu": 657,
      "own": 658,
      "Ġjuga": 659,
      "Ġman": 660,
      "ita": 661,
      "ĠWh": 662,
      "Ġlebih": 663,
      "ark": 664,
      "Ġtime": 665,
      "Ġany": 666,
      "ll": 667,
      "ika": 668,
      "Ġlike": 669,
      "ional": 670,
      "ile": 671,
      "ount": 672,
      "Ġget": 673,
      "Ġyear": 674,
      "ick": 675,
      "Ġpel": 676,
      "anc": 677,
      "ass": 678,
      "Ġind": 679,
      "uch": 680,
      "Ġthem": 681,
      "oh": 682,
      "ahan": 683,
      "Ġkn": 684,
      "uct": 685,
      "ord": 686,
      "Ġwork": 687,
      "Ġop": 688,
      "Ġpe": 689,
      "Ġinter": 690,
      "Ġmer": 691,
      "Ġbel": 692,
      "ont": 693,
      "gun": 694,
      "Ġhad": 695,
      "ree": 696,
      "ement": 697,
      "Ġoleh": 698,
      "Ġsome": 699,
      "Ġif": 700,
      "Ġstr": 701,
      "Ġnew": 702,
      "Ġjust": 703,
      "Ġbeen": 704,
      "ings": 705,
      "Ġro": 706,
      "he": 707,
      "alu": 708,
      "Ġbo": 709,
      "ors": 710,
      "apa": 711,
      "Ġthere": 712,
      "Ġher": 713,
      "Ġwhen": 714,
      "Ġacc": 715,
      "Ġpart": 716,
      "Ġwhat": 717,
      "ert": 718,
      "ally": 719,
      "Ġother": 720,
      "aik": 721,
      "angg": 722,
      "enc": 723,
      "gr": 724,
      "Ġle": 725,
      "ough": 726,
      "Ġsek": 727,
      "Ġak": 728,
      "ink": 729,
      "Ġapp": 730,
      "Ġrec": 731,
      "atu": 732,
      "Ġkepada": 733,
      "aus": 734,
      "ater": 735,
      "Ġover": 736,
      "Ġneed": 737,
      "der": 738,
      "Ġpre": 739,
      "ĠThis": 740,
      "Ġsup": 741,
      "Ġbec": 742,
      "Ġwere": 743,
      "10": 744,
      "alan": 745,
      "Ġits": 746,
      "Ġtelah": 747,
      "Ġthan": 748,
      "ople": 749,
      "ood": 750,
      "Ġrel": 751,
      "Ġpers": 752,
      "Ġwould": 753,
      "Ġte": 754,
      "Ġbl": 755,
      "pr": 756,
      "Ġimp": 757,
      "âĢĻt": 758,
      "Ġtah": 759,
      "Ġonline": 760,
      "uj": 761,
      "Ġfe": 762,
      "ound": 763,
      "Ġada": 764,
      "ĠPer": 765,
      "Ġno": 766,
      "Ġdes": 767,
      "ild": 768,
      "ebut": 769,
      "Ġprod": 770,
      ").": 771,
      "Ġsc": 772,
      "ĠUn": 773,
      "ĠWe": 774,
      "Ġbet": 775,
      "anyak": 776,
      "Ġhow": 777,
      "Ġinto": 778,
      "api": 779,
      "Ġfir": 780,
      "uhan": 781,
      "mer": 782,
      "Ġpeople": 783,
      "ami": 784,
      "'t": 785,
      "200": 786,
      "lah": 787,
      "AN": 788,
      "olog": 789,
      "ingk": 790,
      "aga": 791,
      "Ġsaid": 792,
      "Ġters": 793,
      "Ġmenjadi": 794,
      "Ġorang": 795,
      "ory": 796,
      "Ġhel": 797,
      "ĠAn": 798,
      "se": 799,
      "itt": 800,
      "Ġi": 801,
      "ade": 802,
      "Ġkem": 803,
      "fter": 804,
      "urn": 805,
      "Ġmend": 806,
      "wn": 807,
      "ĠâĢĵ": 808,
      "arkan": 809,
      "Ġsl": 810,
      "si": 811,
      "kin": 812,
      "oy": 813,
      "isa": 814,
      "ire": 815,
      "wa": 816,
      "Ġsy": 817,
      "oll": 818,
      "Ġlain": 819,
      "perti": 820,
      "ĠAs": 821,
      "rough": 822,
      "evel": 823,
      "old": 824,
      "Ġknow": 825,
      "ali": 826,
      "und": 827,
      "Ġkes": 828,
      "Ġsebagai": 829,
      "Ġsatu": 830,
      "Ġpemb": 831,
      "angk": 832,
      "ause": 833,
      "Ġneg": 834,
      "Ġonly": 835,
      "Ġel": 836,
      "ump": 837,
      "ati": 838,
      "Ġmay": 839,
      "ie": 840,
      "Ġcomm": 841,
      "Ġdid": 842,
      "Ġgr": 843,
      "Ġbu": 844,
      "Ġtw": 845,
      "ition": 846,
      "ilik": 847,
      "atur": 848,
      "ja": 849,
      "Ġprov": 850,
      "ft": 851,
      "ĠHe": 852,
      "lud": 853,
      "ena": 854,
      "Ġbr": 855,
      "itu": 856,
      "asan": 857,
      "Ġseperti": 858,
      "udah": 859,
      "ungan": 860,
      "Ġbar": 861,
      "Ġmake": 862,
      "Ġem": 863,
      "ning": 864,
      "ge": 865,
      "Ġkel": 866,
      "ne": 867,
      "Ġfirst": 868,
      "Ġwant": 869,
      "iri": 870,
      "Ġket": 871,
      "Ġevery": 872,
      "ates": 873,
      "Ġdit": 874,
      "ĠAl": 875,
      "Ġberk": 876,
      "Ġco": 877,
      "ict": 878,
      "ĠPro": 879,
      "ove": 880,
      "Ġcr": 881,
      "Ġmin": 882,
      "Ġhelp": 883,
      "Ġadd": 884,
      "ating": 885,
      "lu": 886,
      "tiv": 887,
      "Ġaw": 888,
      "Ġbanyak": 889,
      "Ġback": 890,
      "ta": 891,
      "Ġpol": 892,
      "Ġlook": 893,
      "Ġmost": 894,
      "gunakan": 895,
      "oth": 896,
      "Ġshe": 897,
      "Ġcons": 898,
      "Ġmember": 899,
      "air": 900,
      "Ġbisa": 901,
      "Ġhar": 902,
      "eth": 903,
      "Ġpos": 904,
      "Ġhigh": 905,
      "),": 906,
      "Ġpend": 907,
      "omp": 908,
      "Ġde": 909,
      "ĠIs": 910,
      "ĠYou": 911,
      "Ġbagi": 912,
      "udi": 913,
      "Ġkita": 914,
      "...": 915,
      "Ġberb": 916,
      "orang": 917,
      "cess": 918,
      "atkan": 919,
      "round": 920,
      "akukan": 921,
      "ise": 922,
      "day": 923,
      "Ġthese": 924,
      "ank": 925,
      "iti": 926,
      "Ġinv": 927,
      "les": 928,
      "ech": 929,
      "iew": 930,
      "ĠInd": 931,
      "Ġthrough": 932,
      "Ġinclud": 933,
      "Ġim": 934,
      "Ġph": 935,
      "ities": 936,
      "Ġmod": 937,
      "ting": 938,
      "anj": 939,
      "-b": 940,
      "Ġserv": 941,
      "iss": 942,
      "Ġwell": 943,
      "gan": 944,
      "Ġuse": 945,
      "Ġinform": 946,
      "Ġsecara": 947,
      "uang": 948,
      "ĠIf": 949,
      "aman": 950,
      "Ġtersebut": 951,
      "Ġfl": 952,
      "ubl": 953,
      "ock": 954,
      "Ġdil": 955,
      "Ġmenc": 956,
      "esar": 957,
      "Ġkar": 958,
      "ife": 959,
      "Ġtahun": 960,
      "ino": 961,
      "Ġplay": 962,
      "xt": 963,
      "row": 964,
      "Ġafter": 965,
      "Ġeven": 966,
      "ices": 967,
      "app": 968,
      "Ġbers": 969,
      "Ġreg": 970,
      "Ġsm": 971,
      "Ġcar": 972,
      "Ġatt": 973,
      "ĠMal": 974,
      "Ġgood": 975,
      "Ġthen": 976,
      "iap": 977,
      "ool": 978,
      "we": 979,
      "Ġdiff": 980,
      "gram": 981,
      "Ġnow": 982,
      "akt": 983,
      "ath": 984,
      "Ġtwo": 985,
      "Ġdec": 986,
      "rib": 987,
      "ower": 988,
      "angkan": 989,
      "Ġterb": 990,
      "Ġdib": 991,
      "ener": 992,
      "Ġinst": 993,
      "Ġass": 994,
      "had": 995,
      "Ġmany": 996,
      "isi": 997,
      "ific": 998,
      "mainan": 999,
      "aks": 1000,
      "Ġanda": 1001,
      "edia": 1002,
      "Ġyears": 1003,
      "abil": 1004,
      "Ġsee": 1005,
      "ular": 1006,
      "ily": 1007,
      "Ġvery": 1008,
      "man": 1009,
      "Ġdon": 1010,
      "ash": 1011,
      "ited": 1012,
      "Ġsaya": 1013,
      "ident": 1014,
      "Ġpert": 1015,
      "Ġcould": 1016,
      "Ġshould": 1017,
      "Ġtet": 1018,
      "oint": 1019,
      "Ġdik": 1020,
      "Ġway": 1021,
      "Ġexper": 1022,
      "ala": 1023,
      "Ġdown": 1024,
      "iliki": 1025,
      "Ġdr": 1026,
      "Ġgu": 1027,
      "Ġsub": 1028,
      "unya": 1029,
      "Ġins": 1030,
      "iness": 1031,
      "ious": 1032,
      "Ġ&": 1033,
      "ational": 1034,
      "Ġtent": 1035,
      "Ġsur": 1036,
      "Ġbecause": 1037,
      "Ġact": 1038,
      "ina": 1039,
      "Ġwhere": 1040,
      "aja": 1041,
      "angs": 1042,
      "--------": 1043,
      "angat": 1044,
      "Ġbi": 1045,
      "tern": 1046,
      "Ġhim": 1047,
      "Ġtrans": 1048,
      "als": 1049,
      "fore": 1050,
      "ĠSh": 1051,
      "ful": 1052,
      "Ġown": 1053,
      "ilih": 1054,
      "ject": 1055,
      "Ġdep": 1056,
      ".âĢĿ": 1057,
      "Ġboleh": 1058,
      "ys": 1059,
      "ajar": 1060,
      "Ġcol": 1061,
      "ty": 1062,
      "Ġpermainan": 1063,
      "Ġent": 1064,
      "Ġbus": 1065,
      "ĠAd": 1066,
      "Ġright": 1067,
      "-s": 1068,
      "Ġfin": 1069,
      "12": 1070,
      "Ġthink": 1071,
      "unt": 1072,
      "fer": 1073,
      "ased": 1074,
      "its": 1075,
      "enting": 1076,
      "ĠAr": 1077,
      "res": 1078,
      "awa": 1079,
      "-m": 1080,
      "inya": 1081,
      "ungkin": 1082,
      "Ġhal": 1083,
      "rit": 1084,
      "ept": 1085,
      "ics": 1086,
      "pada": 1087,
      "Ġeff": 1088,
      "hip": 1089,
      "Ġstart": 1090,
      "apan": 1091,
      "li": 1092,
      "Ġses": 1093,
      "Ġlong": 1094,
      "Ġob": 1095,
      "Ġbert": 1096,
      "Ġstud": 1097,
      "uring": 1098,
      "ee": 1099,
      "Ġart": 1100,
      "atch": 1101,
      "yar": 1102,
      "tive": 1103,
      "ible": 1104,
      "ange": 1105,
      "eri": 1106,
      "ĠFor": 1107,
      "sel": 1108,
      "stem": 1109,
      "Ġmuch": 1110,
      "ember": 1111,
      "Ġbaik": 1112,
      "anan": 1113,
      "az": 1114,
      "asino": 1115,
      "Ġmemiliki": 1116,
      "202": 1117,
      "edi": 1118,
      "Ġsuch": 1119,
      "Ġgame": 1120,
      "alth": 1121,
      "ull": 1122,
      "other": 1123,
      "Ġpas": 1124,
      "pect": 1125,
      "ula": 1126,
      "ĠBut": 1127,
      "aysia": 1128,
      "Ġtemp": 1129,
      "Ġkeb": 1130,
      "Ġant": 1131,
      "umber": 1132,
      "ones": 1133,
      "Ġdaripada": 1134,
      "Ġmon": 1135,
      "Ġ$": 1136,
      "Ġpar": 1137,
      "ivers": 1138,
      "ihat": 1139,
      "ets": 1140,
      "Ġed": 1141,
      "berapa": 1142,
      "gi": 1143,
      "ses": 1144,
      "ork": 1145,
      "yp": 1146,
      "15": 1147,
      "Ġnegara": 1148,
      "ĠTr": 1149,
      "Ġspec": 1150,
      "-t": 1151,
      "Ġagain": 1152,
      "Ġday": 1153,
      "Ġtake": 1154,
      "evelop": 1155,
      "erv": 1156,
      "Ġthose": 1157,
      "itas": 1158,
      "Ġfind": 1159,
      "Ġdiffer": 1160,
      "Ġsin": 1161,
      "com": 1162,
      "Ġrem": 1163,
      "ingga": 1164,
      "Ġweb": 1165,
      "Ġperson": 1166,
      "Ġsemua": 1167,
      "ually": 1168,
      "umb": 1169,
      "Ġhere": 1170,
      "ress": 1171,
      "Ġmemp": 1172,
      "Ġprogram": 1173,
      "Ġbest": 1174,
      "Ġgreat": 1175,
      "Ġterm": 1176,
      "ger": 1177,
      "Ġdoes": 1178,
      "30": 1179,
      "Ġbesar": 1180,
      "riv": 1181,
      "iran": 1182,
      "ake": 1183,
      "Ġbeberapa": 1184,
      "imb": 1185,
      "Ġmengh": 1186,
      "Ġund": 1187,
      "Ġbefore": 1188,
      "ĠEn": 1189,
      "af": 1190,
      "Ġsed": 1191,
      "Ġmark": 1192,
      "Ġpeny": 1193,
      "ts": 1194,
      "ience": 1195,
      "Ġsend": 1196,
      "ulan": 1197,
      "Ġprof": 1198,
      "Ġsay": 1199,
      "ER": 1200,
      "Ġread": 1201,
      "Ġbeing": 1202,
      "ative": 1203,
      "Ġloc": 1204,
      "ikut": 1205,
      "ever": 1206,
      "lam": 1207,
      "anding": 1208,
      "Ġsch": 1209,
      "Ġshow": 1210,
      "red": 1211,
      "enar": 1212,
      "Ġend": 1213,
      "ital": 1214,
      "Ġsangat": 1215,
      "Ġharus": 1216,
      "Ġpres": 1217,
      "Ġhanya": 1218,
      "usan": 1219,
      "pa": 1220,
      "read": 1221,
      "Ġmembuat": 1222,
      "uar": 1223,
      "Ġworld": 1224,
      "Ġsom": 1225,
      "Ġprob": 1226,
      "Ġia": 1227,
      "Ġ.": 1228,
      "onom": 1229,
      "ĠOn": 1230,
      "ward": 1231,
      "Ġrequ": 1232,
      "11": 1233,
      "The": 1234,
      "alk": 1235,
      "Ġslot": 1236,
      "ĠMalaysia": 1237,
      "Ġbahwa": 1238,
      "Ġstill": 1239,
      "Ġproduct": 1240,
      "uran": 1241,
      "Ġdem": 1242,
      "Ġdisc": 1243,
      "ism": 1244,
      "Ġput": 1245,
      ",âĢĿ": 1246,
      "Ġcall": 1247,
      "ĠBer": 1248,
      "omm": 1249,
      "arga": 1250,
      "ax": 1251,
      "Ġhand": 1252,
      "agian": 1253,
      "upakan": 1254,
      "hat": 1255,
      "Ġmade": 1256,
      "Ġtan": 1257,
      "Ġfr": 1258,
      "ied": 1259,
      "Ġreal": 1260,
      "18": 1261,
      "||": 1262,
      "Ġbusiness": 1263,
      "Ġdef": 1264,
      "ĠNew": 1265,
      "ments": 1266,
      "Ġfam": 1267,
      "ason": 1268,
      "Ġmus": 1269,
      "ĠSel": 1270,
      "ex": 1271,
      "ether": 1272,
      "Ġpost": 1273,
      "akat": 1274,
      "Ġperlu": 1275,
      "ikasi": 1276,
      "ix": 1277,
      "Ġkami": 1278,
      "Ġav": 1279,
      "ollow": 1280,
      "Ġweek": 1281,
      "Ġapa": 1282,
      "Ġsign": 1283,
      "ner": 1284,
      "Ġdata": 1285,
      "Ġdet": 1286,
      "Ġdia": 1287,
      "Ġserta": 1288,
      "Ġcompl": 1289,
      "Ġlagi": 1290,
      "rect": 1291,
      "Ġsystem": 1292,
      "Ġlife": 1293,
      "Ġmendapat": 1294,
      "ider": 1295,
      "Ġpun": 1296,
      "ins": 1297,
      "ently": 1298,
      "Ġsit": 1299,
      "Ġlast": 1300,
      "Ġcount": 1301,
      "Ġform": 1302,
      "Ġwhile": 1303,
      "ĠSo": 1304,
      "Ġpubl": 1305,
      "nolog": 1306,
      "aling": 1307,
      "te": 1308,
      "rip": 1309,
      "Ġhari": 1310,
      "Ġkarena": 1311,
      "Ġear": 1312,
      "Ġmerupakan": 1313,
      "Ġhome": 1314,
      "Ġtentang": 1315,
      "-p": 1316,
      "Ġadv": 1317,
      "Ġused": 1318,
      "Ġdevelop": 1319,
      "ima": 1320,
      "Ġair": 1321,
      "Ġreally": 1322,
      "Ġunder": 1323,
      "yat": 1324,
      "ĠMel": 1325,
      "urr": 1326,
      "Ġmenggunakan": 1327,
      "Ġinformation": 1328,
      "ros": 1329,
      "Ġbermain": 1330,
      "ĠPeng": 1331,
      "Ġdip": 1332,
      "Ġsol": 1333,
      "ather": 1334,
      "oad": 1335,
      "Ġsama": 1336,
      "ĠAll": 1337,
      "Ġperk": 1338,
      "Ġcre": 1339,
      "__": 1340,
      "Ġlead": 1341,
      "ĠZ": 1342,
      "ĠHow": 1343,
      "50": 1344,
      "Ġext": 1345,
      "ustom": 1346,
      "ection": 1347,
      "ajaran": 1348,
      "olah": 1349,
      "Ġsupport": 1350,
      "aku": 1351,
      "led": 1352,
      "Ġkec": 1353,
      "eli": 1354,
      "Ġcour": 1355,
      "Ġwar": 1356,
      "ilm": 1357,
      "Ġdesign": 1358,
      "Ġtetapi": 1359,
      "ouse": 1360,
      "Ġsu": 1361,
      "Ġresp": 1362,
      "riend": 1363,
      "ren": 1364,
      "uru": 1365,
      "imes": 1366,
      "uka": 1367,
      "Ġvis": 1368,
      "Ġpemain": 1369,
      "ĠAmer": 1370,
      "Ġinf": 1371,
      "ĠMar": 1372,
      "000": 1373,
      "ĠCl": 1374,
      "Ġmemper": 1375,
      "Ġsame": 1376,
      "arik": 1377,
      "urut": 1378,
      "Ġtop": 1379,
      "ĠThey": 1380,
      "Ġorgan": 1381,
      "ĠThere": 1382,
      "ĠAp": 1383,
      "Ġaround": 1384,
      "arang": 1385,
      "ead": 1386,
      "Ġgl": 1387,
      "rop": 1388,
      "Ġut": 1389,
      "Ġaut": 1390,
      "Ġsk": 1391,
      "Ġla": 1392,
      "Ġgoing": 1393,
      ".\"": 1394,
      "els": 1395,
      "Ġtingg": 1396,
      "Ġmain": 1397,
      "ern": 1398,
      "Ġsep": 1399,
      "idup": 1400,
      "Ġeach": 1401,
      "uatu": 1402,
      "Ġgot": 1403,
      "Ġcara": 1404,
      "Ġthough": 1405,
      "ages": 1406,
      "Ġbaru": 1407,
      "min": 1408,
      "ale": 1409,
      "eck": 1410,
      "Ġlot": 1411,
      "ĠSp": 1412,
      "ness": 1413,
      "Ġexc": 1414,
      "Ġgener": 1415,
      "aian": 1416,
      "udian": 1417,
      "Ġret": 1418,
      "Ġfollow": 1419,
      "uah": 1420,
      "ues": 1421,
      "asil": 1422,
      "Ġpay": 1423,
      "unj": 1424,
      "Ġtoo": 1425,
      "Ġrev": 1426,
      "Ġfree": 1427,
      "Ġjika": 1428,
      "Ġmana": 1429,
      "ween": 1430,
      "ize": 1431,
      "roup": 1432,
      "erg": 1433,
      "lect": 1434,
      "Ġpoint": 1435,
      "Ġcle": 1436,
      "lem": 1437,
      "na": 1438,
      "Ġatas": 1439,
      "Ġcommun": 1440,
      "ures": 1441,
      "ĠQ": 1442,
      "oker": 1443,
      "over": 1444,
      "pos": 1445,
      "ically": 1446,
      "Ġconc": 1447,
      "Ġteam": 1448,
      "Ġsudah": 1449,
      "Ġboth": 1450,
      "hadap": 1451,
      "Ġsetiap": 1452,
      "str": 1453,
      "Ġkal": 1454,
      "arah": 1455,
      "Ġdiper": 1456,
      "Ġtech": 1457,
      "Ġseh": 1458,
      "ility": 1459,
      "alui": 1460,
      "ey": 1461,
      "ingin": 1462,
      "idikan": 1463,
      "land": 1464,
      "Ġdifferent": 1465,
      "ways": 1466,
      "Ġanak": 1467,
      "elum": 1468,
      "Ġmul": 1469,
      "Ġopt": 1470,
      "ton": 1471,
      "Ġhapp": 1472,
      "ames": 1473,
      "yarakat": 1474,
      "Ġide": 1475,
      "inc": 1476,
      "uck": 1477,
      "-c": 1478,
      "Ġpop": 1479,
      "hir": 1480,
      "ric": 1481,
      "ives": 1482,
      "Ġpur": 1483,
      "ĠDi": 1484,
      "ivid": 1485,
      "ĠMen": 1486,
      "Ġimport": 1487,
      "Ġchild": 1488,
      "Ġvide": 1489,
      "ĠPen": 1490,
      "ĠPl": 1491,
      "Ġbetween": 1492,
      "ution": 1493,
      "ient": 1494,
      "Ġcor": 1495,
      "âĢ¦": 1496,
      "Ġmasa": 1497,
      "Ġbeg": 1498,
      "AR": 1499,
      "Ġintern": 1500,
      "Ġoper": 1501,
      "ody": 1502,
      "Ġvari": 1503,
      "Ġhear": 1504,
      "Ġmungkin": 1505,
      "Ġprovid": 1506,
      "ĠAt": 1507,
      "earch": 1508,
      "cc": 1509,
      "Ġfound": 1510,
      "EN": 1511,
      "ety": 1512,
      "Ġfew": 1513,
      "ini": 1514,
      "Ġlist": 1515,
      "Ġpenting": 1516,
      "rol": 1517,
      "ope": 1518,
      "erst": 1519,
      "Th": 1520,
      "iel": 1521,
      "IN": 1522,
      "Ġrun": 1523,
      "ode": 1524,
      "14": 1525,
      "ĠTer": 1526,
      "amun": 1527,
      "Ġterhadap": 1528,
      "ĠOr": 1529,
      "ph": 1530,
      "Ġcustom": 1531,
      "ines": 1532,
      "AT": 1533,
      "Ġtrad": 1534,
      "ator": 1535,
      "usah": 1536,
      "Ġhealth": 1537,
      "ying": 1538,
      "Ġprocess": 1539,
      "asuk": 1540,
      "ĠWhat": 1541,
      "Ġsej": 1542,
      "Ġbukan": 1543,
      "âĢĻre": 1544,
      "Ġmarket": 1545,
      "Ġmov": 1546,
      "Ġrum": 1547,
      "Ġmonth": 1548,
      "Ġsendiri": 1549,
      "Ġcap": 1550,
      "Ġplace": 1551,
      "Ġfeel": 1552,
      "ni": 1553,
      "16": 1554,
      "aruhan": 1555,
      "ized": 1556,
      "Ġfact": 1557,
      "Ġkeep": 1558,
      "Ġmat": 1559,
      "Ġsaat": 1560,
      "oney": 1561,
      "thing": 1562,
      "Ġplan": 1563,
      "aikan": 1564,
      "ten": 1565,
      "antu": 1566,
      "istem": 1567,
      "aving": 1568,
      "unan": 1569,
      "Ġbook": 1570,
      "Ġkasino": 1571,
      "ambil": 1572,
      "Ġberl": 1573,
      "Ġ'": 1574,
      "Ġmelakukan": 1575,
      "Ġoffer": 1576,
      "ĠâĢĺ": 1577,
      "100": 1578,
      "AS": 1579,
      "Ġfun": 1580,
      "Ġantara": 1581,
      "13": 1582,
      "Ġlaw": 1583,
      "epat": 1584,
      "Ġusing": 1585,
      "Ġbetter": 1586,
      "ittle": 1587,
      "Ġiss": 1588,
      "ants": 1589,
      "199": 1590,
      "?Ċ": 1591,
      "Ġred": 1592,
      "Ġtog": 1593,
      "oci": 1594,
      "Ġked": 1595,
      "onesia": 1596,
      "ej": 1597,
      "Ġmust": 1598,
      "Ġindust": 1599,
      "unia": 1600,
      "ateg": 1601,
      "Ġdim": 1602,
      "Ġ[": 1603,
      "Ġmasyarakat": 1604,
      "Ġrest": 1605,
      "-d": 1606,
      "-f": 1607,
      "ality": 1608,
      "Ġterl": 1609,
      "Ġmelalui": 1610,
      ",\"": 1611,
      "Ġindivid": 1612,
      "Ġreport": 1613,
      "Ġwr": 1614,
      "ota": 1615,
      "Ġthings": 1616,
      "Ġduring": 1617,
      "Ġinvest": 1618,
      "ayu": 1619,
      "uman": 1620,
      "ĠTo": 1621,
      "Ġpara": 1622,
      "ĠIslam": 1623,
      "ling": 1624,
      "Ġthree": 1625,
      "ĠMan": 1626,
      "ĠBr": 1627,
      "ĠEx": 1628,
      "ihak": 1629,
      "-k": 1630,
      "Ġtyp": 1631,
      "ency": 1632,
      "Ġleg": 1633,
      "Ġcare": 1634,
      "Ġdist": 1635,
      "Ġmet": 1636,
      "Ġmemberikan": 1637,
      "Ġdirect": 1638,
      "Ġallow": 1639,
      "ute": 1640,
      "entuk": 1641,
      "usi": 1642,
      "Ġlear": 1643,
      "ple": 1644,
      "Ġ*": 1645,
      "Ġlet": 1646,
      "Ġopen": 1647,
      "Ġz": 1648,
      "ross": 1649,
      "ĠUS": 1650,
      "Ġsalah": 1651,
      "unyai": 1652,
      "ething": 1653,
      "ris": 1654,
      "ven": 1655,
      "ĠBl": 1656,
      "ola": 1657,
      "aktu": 1658,
      "ĠAb": 1659,
      "uss": 1660,
      "Ġwithout": 1661,
      "Ġ:": 1662,
      "Ġmaj": 1663,
      "Ġfriend": 1664,
      "era": 1665,
      "ahkan": 1666,
      "Ġcome": 1667,
      "ĠAmeric": 1668,
      "Ġpass": 1669,
      "Ġprom": 1670,
      "Ġtinggi": 1671,
      "Ġbig": 1672,
      "plic": 1673,
      "Ġlarg": 1674,
      "Ġpartic": 1675,
      "Ġperj": 1676,
      "Ġbro": 1677,
      "Ġalways": 1678,
      "Ġstand": 1679,
      "Ġkerana": 1680,
      "ingkat": 1681,
      "Ġconf": 1682,
      "Ġschool": 1683,
      "Ġcompany": 1684,
      "Ġask": 1685,
      "Ġresult": 1686,
      "Ġpower": 1687,
      "Ġcond": 1688,
      "ature": 1689,
      "Ġterd": 1690,
      "ense": 1691,
      "ists": 1692,
      "Ġtempat": 1693,
      "ailable": 1694,
      "ral": 1695,
      "ention": 1696,
      "Ġcontin": 1697,
      "agaim": 1698,
      "25": 1699,
      "Ġmempunyai": 1700,
      "orn": 1701,
      "Ġsebelum": 1702,
      "Ġwater": 1703,
      "utan": 1704,
      "self": 1705,
      "Ġperc": 1706,
      "Ġseorang": 1707,
      "Ġexperience": 1708,
      "erja": 1709,
      "ially": 1710,
      "Ġrep": 1711,
      "Ġposs": 1712,
      "-l": 1713,
      "Ġtek": 1714,
      "ĠPr": 1715,
      "ilai": 1716,
      "ku": 1717,
      "Ġincluding": 1718,
      "Ġturn": 1719,
      "17": 1720,
      "Ġberp": 1721,
      "alkan": 1722,
      "ĠWhen": 1723,
      "arm": 1724,
      "Ġeas": 1725,
      "Ġcent": 1726,
      "oin": 1727,
      "oot": 1728,
      "Ġlittle": 1729,
      "ensi": 1730,
      "Ġquest": 1731,
      "Ġsamp": 1732,
      "ush": 1733,
      "upun": 1734,
      "Ġtert": 1735,
      "Ġsomething": 1736,
      "Ġproblem": 1737,
      "omen": 1738,
      "Ġsal": 1739,
      "Ġtaruhan": 1740,
      "Ġpoker": 1741,
      "Ġanother": 1742,
      "enis": 1743,
      "Ġincre": 1744,
      "Ġnext": 1745,
      "Ġinterest": 1746,
      "Ġsitus": 1747,
      "ahu": 1748,
      "Ġnever": 1749,
      "Ġhard": 1750,
      "Ġpot": 1751,
      "Ġberh": 1752,
      "iga": 1753,
      "iving": 1754,
      "Ġbas": 1755,
      "Ġlove": 1756,
      "Ġvideo": 1757,
      "Ġkh": 1758,
      "Ġris": 1759,
      "ĠFr": 1760,
      "til": 1761,
      "Ġsmall": 1762,
      "reen": 1763,
      "ield": 1764,
      "Ġeng": 1765,
      "askan": 1766,
      "Ġsimp": 1767,
      "Ġbuild": 1768,
      "Ġrumah": 1769,
      "ĠSc": 1770,
      "tif": 1771,
      "Ġgroup": 1772,
      "ĠUnivers": 1773,
      "apkan": 1774,
      ".com": 1775,
      "Ġhead": 1776,
      "aining": 1777,
      "Ġdiri": 1778,
      "Ġmight": 1779,
      "Ġlevel": 1780,
      "Ġstat": 1781,
      "Ġmasih": 1782,
      "less": 1783,
      "Ġfamily": 1784,
      "Ġprot": 1785,
      "Ġmasalah": 1786,
      "Ġperform": 1787,
      "Ġdunia": 1788,
      "ired": 1789,
      "Ġold": 1790,
      "Ġcurr": 1791,
      "itan": 1792,
      "24": 1793,
      "Ġcost": 1794,
      "Ġdig": 1795,
      "ards": 1796,
      "Ġcho": 1797,
      "ars": 1798,
      "ulis": 1799,
      "Ġimportant": 1800,
      "Ġpublic": 1801,
      "ihan": 1802,
      "AL": 1803,
      "Ġwhy": 1804,
      "Ġkeh": 1805,
      "Ġsure": 1806,
      "ĠThat": 1807,
      "Ġsince": 1808,
      "usia": 1809,
      "ĠNo": 1810,
      "Ġref": 1811,
      "Ġlay": 1812,
      "aki": 1813,
      "Ġavailable": 1814,
      "esp": 1815,
      "tikan": 1816,
      "Ġben": 1817,
      "Ġmanag": 1818,
      "Ġberd": 1819,
      "ĠPh": 1820,
      "ĠAm": 1821,
      "Ġmengen": 1822,
      "illion": 1823,
      "Ġkek": 1824,
      "ĠShe": 1825,
      "Ġspe": 1826,
      "ished": 1827,
      "aph": 1828,
      "Ġproject": 1829,
      "ately": 1830,
      "Ġmendapatkan": 1831,
      "be": 1832,
      "Ġsen": 1833,
      "ĠDr": 1834,
      "Ġcomplet": 1835,
      "Ġwaktu": 1836,
      ".S": 1837,
      "Ġnumber": 1838,
      "atakan": 1839,
      "ision": 1840,
      "ĠIndonesia": 1841,
      "Ġservice": 1842,
      "Ġpolit": 1843,
      "Ġmoney": 1844,
      "unc": 1845,
      "ajaan": 1846,
      "-h": 1847,
      "urang": 1848,
      "Ġmembantu": 1849,
      "ret": 1850,
      "rov": 1851,
      "Ġmes": 1852,
      "ĠWith": 1853,
      "ron": 1854,
      "Ġrece": 1855,
      "Ġexpl": 1856,
      "Ġgive": 1857,
      "ĠâĢĶ": 1858,
      "aut": 1859,
      "Ġtanpa": 1860,
      "Ġdua": 1861,
      "ertain": 1862,
      "ugg": 1863,
      "ebab": 1864,
      "Ġbahawa": 1865,
      "Ġunderst": 1866,
      "aruh": 1867,
      "atis": 1868,
      "Ġtem": 1869,
      "Ġ/": 1870,
      "Ġgrow": 1871,
      "ingkatkan": 1872,
      "Ġtest": 1873,
      "Ġkom": 1874,
      "Ġfull": 1875,
      "Ġberj": 1876,
      "akah": 1877,
      "akin": 1878,
      "vern": 1879,
      "Ġdays": 1880,
      "Ġpihak": 1881,
      "load": 1882,
      "Ġdigunakan": 1883,
      "Ġorder": 1884,
      "ract": 1885,
      "inal": 1886,
      "ĠDengan": 1887,
      "Ġingin": 1888,
      "Ġwebs": 1889,
      "Ġless": 1890,
      "ĠJoh": 1891,
      "awah": 1892,
      "alaman": 1893,
      "Ġclass": 1894,
      "Ġmedia": 1895,
      "ĠSet": 1896,
      "urs": 1897,
      "Ġconsider": 1898,
      "umlah": 1899,
      "ains": 1900,
      "ready": 1901,
      "Ġsecond": 1902,
      "ilan": 1903,
      "Ġterj": 1904,
      "Ġsuc": 1905,
      "aff": 1906,
      "oleh": 1907,
      "Ġmener": 1908,
      "Ġuang": 1909,
      "eh": 1910,
      "oss": 1911,
      "itional": 1912,
      "ploy": 1913,
      "Ġprev": 1914,
      "Ġsekolah": 1915,
      "Ġagainst": 1916,
      "Ġbad": 1917,
      "Ġsistem": 1918,
      "Ġet": 1919,
      "Ġwin": 1920,
      "Ġjudi": 1921,
      "Ġest": 1922,
      "ands": 1923,
      "Ġbre": 1924,
      "asing": 1925,
      "lease": 1926,
      "Ġbat": 1927,
      "Ġstate": 1928,
      "ced": 1929,
      "Ġmudah": 1930,
      "ration": 1931,
      "wh": 1932,
      "Ġfac": 1933,
      "ocial": 1934,
      "Ġketika": 1935,
      "oor": 1936,
      "Ġsw": 1937,
      "Ġarea": 1938,
      "Ġprovide": 1939,
      "Ġmur": 1940,
      "itch": 1941,
      "Ġgovern": 1942,
      "Ġaff": 1943,
      "Ġdilakukan": 1944,
      "----------------": 1945,
      "Ġmed": 1946,
      "ential": 1947,
      "Ġsebuah": 1948,
      "Ġsehingga": 1949,
      "ream": 1950,
      "let": 1951,
      "onus": 1952,
      "ender": 1953,
      "ces": 1954,
      "Ġfood": 1955,
      "aim": 1956,
      "Ġexp": 1957,
      "Ġsah": 1958,
      ".,": 1959,
      "Ġsing": 1960,
      "Ġalready": 1961,
      "ĠCon": 1962,
      "ental": 1963,
      "Ġable": 1964,
      "Ġmaking": 1965,
      "Ġaccess": 1966,
      "ences": 1967,
      "Ġwithin": 1968,
      "que": 1969,
      "ared": 1970,
      "ective": 1971,
      "outh": 1972,
      "ĠGr": 1973,
      "ably": 1974,
      "Ġkerja": 1975,
      "unjuk": 1976,
      "Ġpaling": 1977,
      "Ġjob": 1978,
      "pt": 1979,
      "Ġpast": 1980,
      "of": 1981,
      "ability": 1982,
      "ott": 1983,
      "Ġka": 1984,
      "ilihan": 1985,
      "Ġlat": 1986,
      "erl": 1987,
      "Ġmakan": 1988,
      "Ġmeet": 1989,
      "Ġrespons": 1990,
      "ems": 1991,
      "Ġcase": 1992,
      "ON": 1993,
      "Ġsaja": 1994,
      "Ġproses": 1995,
      "ries": 1996,
      "ird": 1997,
      "ĠCol": 1998,
      "ases": 1999,
      "âĢĶ": 2000,
      "ior": 2001,
      "ĠRes": 2002,
      "vers": 2003,
      "Ġperm": 2004,
      "Ġresearch": 2005,
      "Ġlight": 2006,
      "40": 2007,
      "Ġdij": 2008,
      "ĠMy": 2009,
      "Ġpet": 2010,
      "ĠMelayu": 2011,
      "Ġbud": 2012,
      "Ġ,": 2013,
      "mi": 2014,
      "ours": 2015,
      "get": 2016,
      "asar": 2017,
      "angsung": 2018,
      "ĠSeb": 2019,
      "awab": 2020,
      "agaimana": 2021,
      "iron": 2022,
      "ng": 2023,
      "Ġthing": 2024,
      "aca": 2025,
      "ats": 2026,
      "ĠIni": 2027,
      "amin": 2028,
      "Ġtel": 2029,
      "aru": 2030,
      "Ġanal": 2031,
      "Ġum": 2032,
      "ĠCont": 2033,
      "awarkan": 2034,
      "Ġbahasa": 2035,
      "Ġtoday": 2036,
      "Ġec": 2037,
      "ister": 2038,
      "'re": 2039,
      "ission": 2040,
      "ujuan": 2041,
      "Ġkaw": 2042,
      "Ġbal": 2043,
      "Ġservices": 2044,
      "Ġpenggun": 2045,
      "angka": 2046,
      "Ġequ": 2047,
      "Ġproduk": 2048,
      "Ġtermasuk": 2049,
      "ney": 2050,
      "Ġkons": 2051,
      "Ġmaka": 2052,
      "ulu": 2053,
      "olv": 2054,
      "ised": 2055,
      "ĠBe": 2056,
      "Ġbeh": 2057,
      "Ġguru": 2058,
      "akit": 2059,
      "Ġialah": 2060,
      "Ġlocal": 2061,
      "ox": 2062,
      "ES": 2063,
      "ote": 2064,
      "ĠDalam": 2065,
      "Ġaway": 2066,
      "thers": 2067,
      "âĢĻve": 2068,
      "Ġworking": 2069,
      "aksan": 2070,
      "Ġmemberi": 2071,
      "Ġchange": 2072,
      "ample": 2073,
      "atif": 2074,
      "ĠMeng": 2075,
      "uruh": 2076,
      "nah": 2077,
      "ware": 2078,
      "iting": 2079,
      "Ġkind": 2080,
      "ĠSy": 2081,
      "Ġterbaik": 2082,
      "ips": 2083,
      "uku": 2084,
      "ering": 2085,
      "way": 2086,
      "ĠSch": 2087,
      "aha": 2088,
      "ajian": 2089,
      "AM": 2090,
      "eter": 2091,
      "iau": 2092,
      "Ġmot": 2093,
      "aring": 2094,
      "aft": 2095,
      "Ġspecial": 2096,
      "ru": 2097,
      "uas": 2098,
      "Ġsaf": 2099,
      "ungg": 2100,
      "Ġactiv": 2101,
      "ayaan": 2102,
      "ids": 2103,
      "Ġjenis": 2104,
      "Ġmil": 2105,
      "ongan": 2106,
      "ected": 2107,
      "arat": 2108,
      "lex": 2109,
      "ĠComm": 2110,
      "Ġnon": 2111,
      "Ġann": 2112,
      "Ġmelihat": 2113,
      "Ġuntil": 2114,
      "Ġmater": 2115,
      "Ġval": 2116,
      "Ġhist": 2117,
      "Ġluar": 2118,
      "Ġpract": 2119,
      "ĠÂ": 2120,
      "Ġprofess": 2121,
      "Ġmeningkatkan": 2122,
      "Ġview": 2123,
      "anda": 2124,
      "Ġsever": 2125,
      "Ġwebsite": 2126,
      "elajaran": 2127,
      "Ġbawah": 2128,
      "Ġkomp": 2129,
      "ĠNeg": 2130,
      "ĠAg": 2131,
      "Ġek": 2132,
      "Ġpes": 2133,
      "ĠEd": 2134,
      "orts": 2135,
      "orth": 2136,
      "Ġlooking": 2137,
      "omb": 2138,
      "aking": 2139,
      "ole": 2140,
      "Ġtu": 2141,
      "Ġsays": 2142,
      "ny": 2143,
      "Ġvers": 2144,
      "ills": 2145,
      "uction": 2146,
      "Ġni": 2147,
      "abila": 2148,
      "ried": 2149,
      "Ġmar": 2150,
      "Ġdat": 2151,
      "ocus": 2152,
      "ĠJika": 2153,
      "ified": 2154,
      "ements": 2155,
      "engk": 2156,
      "ording": 2157,
      "oub": 2158,
      "Ġdidn": 2159,
      "ĠâĢ¢": 2160,
      "Ġpelajar": 2161,
      "augh": 2162,
      "Ġhidup": 2163,
      "ij": 2164,
      "itar": 2165,
      "icle": 2166,
      "ĠCan": 2167,
      "amu": 2168,
      "ization": 2169,
      "uai": 2170,
      "Ġhot": 2171,
      "ping": 2172,
      "Ġpertama": 2173,
      "Ġcountry": 2174,
      "Ġaccount": 2175,
      "Ġterus": 2176,
      "Ġstudents": 2177,
      "ĠRe": 2178,
      "Ġchang": 2179,
      "akyat": 2180,
      "Ġdir": 2181,
      "isasi": 2182,
      "Ġmengg": 2183,
      "ury": 2184,
      "ieve": 2185,
      "Ġaku": 2186,
      "erm": 2187,
      "Ġchildren": 2188,
      "ĠThese": 2189,
      "Ġcourse": 2190,
      "Ġsim": 2191,
      "fa": 2192,
      "hor": 2193,
      "ðŁ": 2194,
      "ĠX": 2195,
      "Ġexpect": 2196,
      "eft": 2197,
      "Ġfour": 2198,
      "Ġdel": 2199,
      "Ġchar": 2200,
      "Ġenj": 2201,
      "Ġbek": 2202,
      "IS": 2203,
      "Ġoften": 2204,
      "Ġapplic": 2205,
      "Ġsuccess": 2206,
      "Ġbonus": 2207,
      "Ġlik": 2208,
      "Ġlap": 2209,
      "Ġsent": 2210,
      "Ġnear": 2211,
      "rod": 2212,
      "Ġutama": 2213,
      "itions": 2214,
      "not": 2215,
      "Ġhasil": 2216,
      "Ġens": 2217,
      "Ġemploy": 2218,
      "'m": 2219,
      "ories": 2220,
      "Ġmenarik": 2221,
      "ĠOne": 2222,
      "Ġlearn": 2223,
      "Ġberbagai": 2224,
      "Ġpendidikan": 2225,
      "Ġcheck": 2226,
      "Ġtimes": 2227,
      "Ġproper": 2228,
      "ows": 2229,
      "ĠDan": 2230,
      "Ġdev": 2231,
      "ained": 2232,
      "work": 2233,
      "une": 2234,
      "22": 2235,
      "ĠSem": 2236,
      "Ġtalk": 2237,
      "angsa": 2238,
      "oran": 2239,
      "Ġsitu": 2240,
      "ediakan": 2241,
      "ken": 2242,
      "epas": 2243,
      "angkah": 2244,
      "son": 2245,
      "Ġpersonal": 2246,
      "irl": 2247,
      "ori": 2248,
      "Ġnight": 2249,
      "ĠCent": 2250,
      "Ġx": 2251,
      "ape": 2252,
      "Ġmean": 2253,
      "Ġlive": 2254,
      "Ġsos": 2255,
      "lim": 2256,
      "Ġphot": 2257,
      "Ġtell": 2258,
      "ley": 2259,
      "Ġroom": 2260,
      "Ġcover": 2261,
      "Ġword": 2262,
      "Ġsite": 2263,
      "Ġenough": 2264,
      "Ġneeds": 2265,
      "ĠSe": 2266,
      "to": 2267,
      "Ġah": 2268,
      "aris": 2269,
      "Ġoffic": 2270,
      "empat": 2271,
      "ukup": 2272,
      "erj": 2273,
      "isc": 2274,
      "Ġcreat": 2275,
      "uhkan": 2276,
      "Ġbecome": 2277,
      "ubungan": 2278,
      "Ġkey": 2279,
      "Ġbenef": 2280,
      "Ġband": 2281,
      "ĠEng": 2282,
      "âĢĻll": 2283,
      "ene": 2284,
      "Ġfilm": 2285,
      "ebabkan": 2286,
      "Ġdiber": 2287,
      "avor": 2288,
      "ran": 2289,
      "ĠMay": 2290,
      "Ġevent": 2291,
      "OR": 2292,
      "Ġdih": 2293,
      "Ġhaving": 2294,
      "Ġhingga": 2295,
      "Ġconn": 2296,
      "Ġpek": 2297,
      "Ġdin": 2298,
      "ĠJohn": 2299,
      "Ġtreat": 2300,
      "Ġmind": 2301,
      "ila": 2302,
      "Ġcommunity": 2303,
      "the": 2304,
      "ĠPem": 2305,
      "Ġhouse": 2306,
      "ier": 2307,
      "Ġquality": 2308,
      "ails": 2309,
      "This": 2310,
      "ped": 2311,
      "aster": 2312,
      "unjukkan": 2313,
      "iter": 2314,
      "Ġkata": 2315,
      "por": 2316,
      "Ġindividual": 2317,
      "arch": 2318,
      "Ġtechnolog": 2319,
      "Ġleft": 2320,
      "Ġname": 2321,
      "viron": 2322,
      "itive": 2323,
      "##": 2324,
      "ĠOur": 2325,
      "60": 2326,
      "Ġbody": 2327,
      "Ġpresent": 2328,
      "Ġfar": 2329,
      "Ġident": 2330,
      "Ġkali": 2331,
      "ĠNamun": 2332,
      "ending": 2333,
      "Ġcamp": 2334,
      "aper": 2335,
      "âĢĻm": 2336,
      "utes": 2337,
      "ĠUniversity": 2338,
      "Ġmemas": 2339,
      "obal": 2340,
      "Ġmembers": 2341,
      "Ġtogether": 2342,
      "ww": 2343,
      "21": 2344,
      "angunan": 2345,
      "Ġagar": 2346,
      "anak": 2347,
      "ira": 2348,
      "ted": 2349,
      "anjang": 2350,
      "ĠDo": 2351,
      "Ġmajor": 2352,
      "unch": 2353,
      "Ġreview": 2354,
      "Ġshort": 2355,
      "Ġgovernment": 2356,
      "Ġdah": 2357,
      "ogr": 2358,
      "Ġstory": 2359,
      "ived": 2360,
      "rem": 2361,
      "Ġib": 2362,
      "uter": 2363,
      "Ġsocial": 2364,
      "ended": 2365,
      "ĠSek": 2366,
      "ĠRM": 2367,
      "ĠAk": 2368,
      "Ġeduc": 2369,
      "Ġfeatur": 2370,
      "Ġbuy": 2371,
      "Ġdoesn": 2372,
      "Ġimm": 2373,
      "Ġcontrol": 2374,
      "AH": 2375,
      "erah": 2376,
      "Ġfocus": 2377,
      "pres": 2378,
      "ensive": 2379,
      "Ġve": 2380,
      "Ġalong": 2381,
      "ĠGod": 2382,
      "Ġberm": 2383,
      "ĠIntern": 2384,
      "Ġfil": 2385,
      "uture": 2386,
      "Ġproducts": 2387,
      "idd": 2388,
      "Ġpat": 2389,
      "Ġpenj": 2390,
      "ĠRep": 2391,
      "Ġpand": 2392,
      "amat": 2393,
      "ĠIm": 2394,
      "Ġmeans": 2395,
      "side": 2396,
      "Ġiaitu": 2397,
      "Ġever": 2398,
      "Ġbit": 2399,
      "Ġside": 2400,
      "Ġactually": 2401,
      "ergy": 2402,
      "IT": 2403,
      "Ġmengenai": 2404,
      "Ġdoing": 2405,
      "itor": 2406,
      "bagai": 2407,
      "Ġsoft": 2408,
      "fort": 2409,
      "sy": 2410,
      "Ġappro": 2411,
      "fect": 2412,
      "asional": 2413,
      "ols": 2414,
      "Ġya": 2415,
      "Ġsesuatu": 2416,
      "ili": 2417,
      "Ġlangsung": 2418,
      "Ġken": 2419,
      "Ġfund": 2420,
      "Ġreturn": 2421,
      "Ġten": 2422,
      "rive": 2423,
      "ĠInst": 2424,
      "Ġbased": 2425,
      "usahaan": 2426,
      "____": 2427,
      "ĠFl": 2428,
      "ĠHal": 2429,
      "Ġstop": 2430,
      "Ġothers": 2431,
      "Ġlim": 2432,
      "tor": 2433,
      "Ġnews": 2434,
      "Ġdone": 2435,
      "Ġwomen": 2436,
      "Ġbersama": 2437,
      "ani": 2438,
      "Ġmakes": 2439,
      "ising": 2440,
      "ĠHowever": 2441,
      "Ġfit": 2442,
      "Ġpak": 2443,
      "ony": 2444,
      "23": 2445,
      "lum": 2446,
      "-r": 2447,
      "aps": 2448,
      "Ġprice": 2449,
      "ĠCar": 2450,
      "aka": 2451,
      "acy": 2452,
      "inta": 2453,
      "uskan": 2454,
      "onomi": 2455,
      "portun": 2456,
      "Ġinclude": 2457,
      "Ġline": 2458,
      "Ġcertain": 2459,
      "atform": 2460,
      "iven": 2461,
      "Ġblog": 2462,
      "ĠPend": 2463,
      "Ġmaterial": 2464,
      "Ġkont": 2465,
      "Ġseason": 2466,
      "Ġenjoy": 2467,
      "by": 2468,
      "uce": 2469,
      "Ġeasy": 2470,
      "Ġleast": 2471,
      "Ġgetting": 2472,
      "eseorang": 2473,
      "usnya": 2474,
      "ves": 2475,
      "ĠGo": 2476,
      "io": 2477,
      "ĠSelain": 2478,
      "Ġperb": 2479,
      "Ġtot": 2480,
      "elu": 2481,
      "ĠMus": 2482,
      "....": 2483,
      "Ġwrit": 2484,
      "Ġstep": 2485,
      "ĠSec": 2486,
      "jek": 2487,
      "rist": 2488,
      "edah": 2489,
      "Ġhappen": 2490,
      "Ġbag": 2491,
      "ĠYang": 2492,
      "Ġsesuai": 2493,
      "Ġelect": 2494,
      "ĠKe": 2495,
      "198": 2496,
      "US": 2497,
      "ĠSup": 2498,
      "Ġappear": 2499,
      "Ġcut": 2500,
      "Ġpossible": 2501,
      "Ġcal": 2502,
      "ĠApr": 2503,
      "Ġnet": 2504,
      "Ġmengambil": 2505,
      "ĠPol": 2506,
      "lish": 2507,
      "Ġpain": 2508,
      "Ġtry": 2509,
      "ĠAfter": 2510,
      "Ġmanusia": 2511,
      "uff": 2512,
      "alleng": 2513,
      "Ġrecord": 2514,
      "asarkan": 2515,
      "Ġsi": 2516,
      "avel": 2517,
      "Ġsuatu": 2518,
      "Ġocc": 2519,
      "Ġgames": 2520,
      "yle": 2521,
      "Ġlow": 2522,
      "!!": 2523,
      "Ġseveral": 2524,
      "Ġaktiv": 2525,
      "Ġbahan": 2526,
      "Ġcharg": 2527,
      "ither": 2528,
      "ĠComp": 2529,
      "tion": 2530,
      "plikasi": 2531,
      "Ġcalled": 2532,
      "Ġmodel": 2533,
      "vironment": 2534,
      "ully": 2535,
      "erc": 2536,
      "press": 2537,
      "Ġkelu": 2538,
      "In": 2539,
      "Ġlarge": 2540,
      "br": 2541,
      "ĠBel": 2542,
      "Ġlog": 2543,
      "osp": 2544,
      "Ġcreate": 2545,
      "Ġcer": 2546,
      "ured": 2547,
      "akkan": 2548,
      "yc": 2549,
      "ots": 2550,
      "ances": 2551,
      "Ġmemilih": 2552,
      "ĠPers": 2553,
      "Ġdeli": 2554,
      "Ġpilihan": 2555,
      "ĠUntuk": 2556,
      "Ġselama": 2557,
      "aces": 2558,
      "Ġyg": 2559,
      "Ġopportun": 2560,
      "Ġkerajaan": 2561,
      "ĠEm": 2562,
      "Ġprofessional": 2563,
      "urity": 2564,
      "Ġsosial": 2565,
      "Ġmom": 2566,
      "Ġpul": 2567,
      "Ġcomes": 2568,
      "ĠPada": 2569,
      "Ġjadi": 2570,
      "Ġpan": 2571,
      "idang": 2572,
      "Ġkecil": 2573,
      "Ġseg": 2574,
      "Ġpernah": 2575,
      "Ġrele": 2576,
      "ĠNot": 2577,
      "elas": 2578,
      "impin": 2579,
      "Ġfre": 2580,
      "Ġpemer": 2581,
      "engah": 2582,
      "Ġfollowing": 2583,
      "Ġ|Ċ": 2584,
      "ĠChina": 2585,
      "Ġmor": 2586,
      "Ġmusic": 2587,
      "sw": 2588,
      "Ġli": 2589,
      "entu": 2590,
      "for": 2591,
      "Ġmillion": 2592,
      "Ġshare": 2593,
      "Ġmasuk": 2594,
      "Ġbentuk": 2595,
      "Ġeconom": 2596,
      "Ġfuture": 2597,
      "Ġthought": 2598,
      "Ġmenunjukkan": 2599,
      "ĠMe": 2600,
      "ams": 2601,
      "ĠAss": 2602,
      "ĠPel": 2603,
      "urther": 2604,
      "ĠMin": 2605,
      "âĢľ": 2606,
      "ĠJan": 2607,
      "Ġonce": 2608,
      "Ġstrateg": 2609,
      "cer": 2610,
      "28": 2611,
      "ampu": 2612,
      "It": 2613,
      "Ùİ": 2614,
      "Ġreason": 2615,
      "Ġbola": 2616,
      "Ġclear": 2617,
      "Ġhold": 2618,
      "ungi": 2619,
      "raft": 2620,
      "Ġbank": 2621,
      "Ġwatch": 2622,
      "ify": 2623,
      "ĠLe": 2624,
      "Ġbagian": 2625,
      "anggung": 2626,
      "aid": 2627,
      "awan": 2628,
      "Ġacross": 2629,
      "Ġtahu": 2630,
      "nologi": 2631,
      "endak": 2632,
      "ĠPres": 2633,
      "Ġche": 2634,
      "Ġdevelopment": 2635,
      "ĠYour": 2636,
      "Ġseseorang": 2637,
      "Ġpula": 2638,
      "Ġpeluang": 2639,
      "aktor": 2640,
      "Ġwon": 2641,
      "Ġworks": 2642,
      "Ġenc": 2643,
      "uf": 2644,
      "Ġquick": 2645,
      "aji": 2646,
      "ĠMem": 2647,
      "Ġcame": 2648,
      "Ġkon": 2649,
      "auh": 2650,
      "Ġpriv": 2651,
      "hing": 2652,
      "ethod": 2653,
      "Ġcontact": 2654,
      "lus": 2655,
      "'ve": 2656,
      "Ġdeal": 2657,
      "Ġoil": 2658,
      "Ġrequire": 2659,
      "ID": 2660,
      "Ġharga": 2661,
      "nis": 2662,
      "Ġperjudian": 2663,
      "Ġrakyat": 2664,
      "Ġperi": 2665,
      "Ġmenawarkan": 2666,
      "ubah": 2667,
      "Ġparticular": 2668,
      "EM": 2669,
      "sup": 2670,
      "Ġremain": 2671,
      "Ġwa": 2672,
      "Ġtax": 2673,
      "Ġkemb": 2674,
      "Ġvol": 2675,
      "Ġlalu": 2676,
      "Ġmengikut": 2677,
      "Ġemail": 2678,
      "Ġmob": 2679,
      "Ġstrong": 2680,
      "ners": 2681,
      "Ġur": 2682,
      "Ġbring": 2683,
      "Ġey": 2684,
      "adaan": 2685,
      "pek": 2686,
      "ĠKet": 2687,
      "elf": 2688,
      "ĠHar": 2689,
      "ĠAmerican": 2690,
      "ouch": 2691,
      "Ġcompet": 2692,
      "eder": 2693,
      "idence": 2694,
      "27": 2695,
      "Ġlater": 2696,
      "sh": 2697,
      "abor": 2698,
      "ĠBy": 2699,
      "Ġny": 2700,
      "Ġfriends": 2701,
      "eda": 2702,
      "oo": 2703,
      "Ġnilai": 2704,
      "uasa": 2705,
      "Ġcollect": 2706,
      "Ġplatform": 2707,
      "Ġjumlah": 2708,
      "EL": 2709,
      "We": 2710,
      "Ġyet": 2711,
      "ength": 2712,
      "ma": 2713,
      "Ġakhir": 2714,
      "ides": 2715,
      "Ġkedua": 2716,
      "Ġawal": 2717,
      "Ġbenar": 2718,
      "ource": 2719,
      "Ġport": 2720,
      "Ġterdapat": 2721,
      "uduk": 2722,
      "Ġinformasi": 2723,
      "Ġnak": 2724,
      "ĠCo": 2725,
      "Ġsering": 2726,
      "room": 2727,
      "Ġcukup": 2728,
      "asanya": 2729,
      "Ġcity": 2730,
      "ahui": 2731,
      "apai": 2732,
      "embangan": 2733,
      "uly": 2734,
      "sc": 2735,
      "Ġkej": 2736,
      "iday": 2737,
      "ural": 2738,
      "Ġwent": 2739,
      "ians": 2740,
      "ibat": 2741,
      "26": 2742,
      "Ġmonths": 2743,
      "ograph": 2744,
      "uda": 2745,
      "ĠBah": 2746,
      "most": 2747,
      "Ġstay": 2748,
      "enuh": 2749,
      "Ġpembelajaran": 2750,
      "Ġlo": 2751,
      "idm": 2752,
      "Ġcompan": 2753,
      "ĠUnited": 2754,
      "Ġpati": 2755,
      "Ġrelations": 2756,
      "Ġvisit": 2757,
      "Ġorig": 2758,
      "Ġmulti": 2759,
      "Ġess": 2760,
      "!Ċ": 2761,
      "Ġu": 2762,
      "Ġidea": 2763,
      "utions": 2764,
      "Ġbuat": 2765,
      "Ġchalleng": 2766,
      "ĠPM": 2767,
      "Ġhuman": 2768,
      "Ġlainnya": 2769,
      "ift": 2770,
      "Ġapabila": 2771,
      "eed": 2772,
      "imal": 2773,
      "Ġclaim": 2774,
      "enangan": 2775,
      "Ġberlaku": 2776,
      "ources": 2777,
      "Ġexample": 2778,
      "artment": 2779,
      "irc": 2780,
      "awatan": 2781,
      "Ġpri": 2782,
      "Ġtetap": 2783,
      "oman": 2784,
      "Ġstarted": 2785,
      "Ġperfect": 2786,
      "Ġterp": 2787,
      "ined": 2788,
      "ahami": 2789,
      "Ġearly": 2790,
      "Ġbulan": 2791,
      "Ġblack": 2792,
      "Ġindustry": 2793,
      "ecially": 2794,
      "Ġhours": 2795,
      "Ġsell": 2796,
      "ĠSer": 2797,
      "Ġsemakin": 2798,
      "nik": 2799,
      "ored": 2800,
      "ĠDep": 2801,
      "Ġtim": 2802,
      "emukan": 2803,
      "Ġcontent": 2804,
      "ery": 2805,
      "uit": 2806,
      "ĠPar": 2807,
      "Ġtook": 2808,
      "Ġclos": 2809,
      "Ġfinanc": 2810,
      "Ġsomeone": 2811,
      "Ġcomb": 2812,
      "Ġperusahaan": 2813,
      "ights": 2814,
      "ikit": 2815,
      "alankan": 2816,
      "ees": 2817,
      "Ġsus": 2818,
      "anti": 2819,
      "Ġgun": 2820,
      "umpulan": 2821,
      "ĠNov": 2822,
      "ulit": 2823,
      "Ġpercent": 2824,
      "Ġpress": 2825,
      "oon": 2826,
      "Ġsetelah": 2827,
      "Ġberikut": 2828,
      "oud": 2829,
      "tt": 2830,
      "Ġsum": 2831,
      "Ġkas": 2832,
      "ogn": 2833,
      "ination": 2834,
      "ĠAc": 2835,
      "ann": 2836,
      "Ġbeaut": 2837,
      "Ġeffect": 2838,
      "Ġpopul": 2839,
      "untungan": 2840,
      "Ġbelajar": 2841,
      "oard": 2842,
      "acter": 2843,
      "iswa": 2844,
      "Ġeverything": 2845,
      "Ġdue": 2846,
      "iev": 2847,
      "ĠWor": 2848,
      "Ġkhus": 2849,
      "Ġinvolv": 2850,
      "Ġlama": 2851,
      "Ġclean": 2852,
      "aksi": 2853,
      "AP": 2854,
      "ument": 2855,
      "Ġsingle": 2856,
      "Ġsound": 2857,
      "atic": 2858,
      "iec": 2859,
      "ategi": 2860,
      "Ġsearch": 2861,
      "Ġkawasan": 2862,
      "Ġberg": 2863,
      "aging": 2864,
      "Ġseluruh": 2865,
      "Ġsekarang": 2866,
      "imum": 2867,
      "Ġquestion": 2868,
      "ĠTe": 2869,
      "-g": 2870,
      "Ġdatang": 2871,
      "endah": 2872,
      "Ġreach": 2873,
      "Ġunderstand": 2874,
      "atural": 2875,
      "ecess": 2876,
      "Ġbur": 2877,
      "tr": 2878,
      "Ġkembali": 2879,
      "Ġpack": 2880,
      "nam": 2881,
      "Ġnorm": 2882,
      "Ġtab": 2883,
      "Ġkemudian": 2884,
      "adem": 2885,
      "Ġ--": 2886,
      "ubahan": 2887,
      "Ġterjadi": 2888,
      "Ġcou": 2889,
      "Ġ#": 2890,
      "Ġdesc": 2891,
      "Ġfavor": 2892,
      "Ġmesin": 2893,
      "ters": 2894,
      "Ġwhether": 2895,
      "udd": 2896,
      "Ġpengalaman": 2897,
      "eles": 2898,
      "Ġsedang": 2899,
      "Ġstudy": 2900,
      "Ġsekali": 2901,
      "ĠSaya": 2902,
      "ĠDes": 2903,
      "ibility": 2904,
      "now": 2905,
      "ilah": 2906,
      "Ġpenc": 2907,
      "wards": 2908,
      "Ġtold": 2909,
      "Ġsignific": 2910,
      "ction": 2911,
      "Ġenvironment": 2912,
      "Ġpelbagai": 2913,
      "Ġmah": 2914,
      "Ġberada": 2915,
      "UR": 2916,
      "Ġrepres": 2917,
      "illed": 2918,
      "amai": 2919,
      "Ġwan": 2920,
      "Ġpopular": 2921,
      "Ġvir": 2922,
      "ED": 2923,
      "uatan": 2924,
      "Ġissues": 2925,
      "ĠBar": 2926,
      "Ġpolic": 2927,
      "'ll": 2928,
      "Ġshop": 2929,
      "Ġenergy": 2930,
      "entukan": 2931,
      "agaan": 2932,
      "Ġtepat": 2933,
      "oid": 2934,
      "Ġtype": 2935,
      "Ġspace": 2936,
      "Ġpage": 2937,
      "Ġbagaimana": 2938,
      "Ġbegin": 2939,
      "Ġago": 2940,
      "Ġknown": 2941,
      "Ġwhole": 2942,
      "Ġinternet": 2943,
      "Ġamong": 2944,
      "ĠNow": 2945,
      "Ġauthor": 2946,
      "aftar": 2947,
      "ĠMr": 2948,
      "ler": 2949,
      "ends": 2950,
      "idupan": 2951,
      "aur": 2952,
      "ule": 2953,
      "ikir": 2954,
      "ology": 2955,
      "especially": 2956,
      "roll": 2957,
      "ĠJust": 2958,
      "Ġface": 2959,
      "Ġselalu": 2960,
      "egr": 2961,
      "-n": 2962,
      "29": 2963,
      "Ġbeliau": 2964,
      "Ġcult": 2965,
      "amm": 2966,
      "Ġproduc": 2967,
      "Ġcompanies": 2968,
      "agn": 2969,
      "Ġcurrent": 2970,
      "Ġwind": 2971,
      "ĠCal": 2972,
      "za": 2973,
      "Ġindustri": 2974,
      "Ġsampai": 2975,
      "ĠPemb": 2976,
      "Ġmethod": 2977,
      "ikat": 2978,
      "acam": 2979,
      "Ġdiscuss": 2980,
      "ief": 2981,
      "Ġhit": 2982,
      "ĠEur": 2983,
      "Ġprep": 2984,
      "ilar": 2985,
      "tain": 2986,
      "hidm": 2987,
      "Ġaddress": 2988,
      "anjut": 2989,
      "raga": 2990,
      "angkat": 2991,
      "ĠKar": 2992,
      "ĠWhile": 2993,
      "ĠKes": 2994,
      "ference": 2995,
      "ĠServ": 2996,
      "reet": 2997,
      "Ġgiven": 2998,
      "ĠAust": 2999,
      "Ġpurch": 3000,
      "Ġkurang": 3001,
      "ests": 3002,
      "Ġangg": 3003,
      "Ġtechnology": 3004,
      "Ġahli": 3005,
      "Ġfive": 3006,
      "Ġanything": 3007,
      "ober": 3008,
      "Ġgirl": 3009,
      "asilkan": 3010,
      "Ġseen": 3011,
      "rict": 3012,
      "ayar": 3013,
      "rew": 3014,
      "ĠBank": 3015,
      "Ġglobal": 3016,
      "Ġamount": 3017,
      "80": 3018,
      "Ġekonomi": 3019,
      "indakan": 3020,
      "Ġoffers": 3021,
      "aupun": 3022,
      "Ġbelow": 3023,
      "Ġwalk": 3024,
      "ogle": 3025,
      "iously": 3026,
      "org": 3027,
      "Ġyoung": 3028,
      "ublic": 3029,
      "Ġeveryone": 3030,
      "Ġhendak": 3031,
      "Ġmess": 3032,
      "selves": 3033,
      "eks": 3034,
      "eper": 3035,
      "Ġbelieve": 3036,
      "urch": 3037,
      "Ġperl": 3038,
      "ban": 3039,
      "Ġmampu": 3040,
      "ĠUs": 3041,
      "Ġcred": 3042,
      "Ġmencari": 3043,
      "ered": 3044,
      "Ġbiasa": 3045,
      "Ġsekitar": 3046,
      "intah": 3047,
      "ayaran": 3048,
      "-w": 3049,
      "Ġgen": 3050,
      "ambah": 3051,
      "ET": 3052,
      "usat": 3053,
      "awat": 3054,
      "Ġteach": 3055,
      "Ġfeatures": 3056,
      "ester": 3057,
      "Ġtaking": 3058,
      "Ġdownload": 3059,
      "Ġtertentu": 3060,
      "Ġgamb": 3061,
      "Ġmemastikan": 3062,
      "Ġland": 3063,
      "ĠTw": 3064,
      "Ġmulai": 3065,
      "Ġdom": 3066,
      "etahui": 3067,
      "arian": 3068,
      "Ġsex": 3069,
      "Ġhistory": 3070,
      "Ġmis": 3071,
      "Ġrecomm": 3072,
      "Ġer": 3073,
      "Ġrelationship": 3074,
      "Ġcommon": 3075,
      "Ġvalue": 3076,
      "Ġtiga": 3077,
      "Ġdriv": 3078,
      "aksanakan": 3079,
      "ilt": 3080,
      "UN": 3081,
      "alau": 3082,
      "Ġsahaja": 3083,
      "Ġissue": 3084,
      "ĠKer": 3085,
      "Ġjalan": 3086,
      "ahuan": 3087,
      "Ġdic": 3088,
      "Wh": 3089,
      "Ġespecially": 3090,
      "Ġrange": 3091,
      "ĠYork": 3092,
      "Ġlov": 3093,
      "lege": 3094,
      "Ġbidang": 3095,
      "vert": 3096,
      "Ġresults": 3097,
      "Ġkeluarga": 3098,
      "oba": 3099,
      "ĠSome": 3100,
      "ujud": 3101,
      "Ġda": 3102,
      "ĠAS": 3103,
      "Ġmove": 3104,
      "Ġfield": 3105,
      "ledge": 3106,
      "Ġumum": 3107,
      "Ġmurid": 3108,
      "Ġperformance": 3109,
      "OT": 3110,
      "ĠBro": 3111,
      "Ġabove": 3112,
      "ĠDat": 3113,
      "Ġminutes": 3114,
      "ĠSen": 3115,
      "artu": 3116,
      "imate": 3117,
      "Ġbegitu": 3118,
      "oper": 3119,
      "ikian": 3120,
      "Ġdasar": 3121,
      "Ġspecific": 3122,
      "Ġinstall": 3123,
      "Ġself": 3124,
      "gress": 3125,
      "ugas": 3126,
      "ĠSl": 3127,
      "Ġcannot": 3128,
      "Ġtit": 3129,
      "ĠCity": 3130,
      "Ġvarious": 3131,
      "Ġnegeri": 3132,
      "ĠKem": 3133,
      "ĠSm": 3134,
      "sa": 3135,
      "ane": 3136,
      "Ġkehidupan": 3137,
      "lahraga": 3138,
      "ÙĦ": 3139,
      "Ġansw": 3140,
      "umen": 3141,
      "Ġmanagement": 3142,
      "AD": 3143,
      "Ġmemang": 3144,
      "Ġdigital": 3145,
      "though": 3146,
      "tian": 3147,
      "play": 3148,
      "ingan": 3149,
      "ĠHere": 3150,
      "Ġapproach": 3151,
      "Ġperiod": 3152,
      "ĠMore": 3153,
      "Ġfurther": 3154,
      "IC": 3155,
      "sp": 3156,
      "gg": 3157,
      "Ġmiss": 3158,
      "ĠOff": 3159,
      "ume": 3160,
      "Ġsignificant": 3161,
      "ĠGu": 3162,
      "Ġupd": 3163,
      "ided": 3164,
      "Ġdam": 3165,
      "Ġmal": 3166,
      "Ġhom": 3167,
      "Ġilm": 3168,
      "edic": 3169,
      "resh": 3170,
      "Ġcustomers": 3171,
      "Ġfall": 3172,
      "Ġtrack": 3173,
      "Ġsugg": 3174,
      "ĠCount": 3175,
      "AK": 3176,
      "upa": 3177,
      "osi": 3178,
      "Ġcard": 3179,
      "ille": 3180,
      "-in": 3181,
      "Ġbelum": 3182,
      "Ġplease": 3183,
      "ror": 3184,
      "Ġpret": 3185,
      "ungsi": 3186,
      "irm": 3187,
      "Ġeither": 3188,
      "Ġgratis": 3189,
      "view": 3190,
      "Ġsil": 3191,
      "Ġwond": 3192,
      "Ġhalf": 3193,
      "Ġsumber": 3194,
      "ĠMereka": 3195,
      "Ġmenyebabkan": 3196,
      "ebook": 3197,
      "ĠInc": 3198,
      "Ġtangan": 3199,
      "Ġsens": 3200,
      "ĠMc": 3201,
      "Ġtravel": 3202,
      "Ġquestions": 3203,
      "eal": 3204,
      "att": 3205,
      "ples": 3206,
      "Ġtapi": 3207,
      "alami": 3208,
      "...Ċ": 3209,
      "Ġlink": 3210,
      "isis": 3211,
      "ince": 3212,
      "ival": 3213,
      "uta": 3214,
      "Ġaplikasi": 3215,
      "Ġunivers": 3216,
      "itted": 3217,
      "197": 3218,
      "ators": 3219,
      "Ġmenang": 3220,
      "Ġmakanan": 3221,
      "Ġtrying": 3222,
      "ĠGl": 3223,
      "âĢĵ": 3224,
      "utusan": 3225,
      "adang": 3226,
      "Ġteknologi": 3227,
      "Ġsini": 3228,
      "aul": 3229,
      "uz": 3230,
      "Ġtub": 3231,
      "ii": 3232,
      ".m": 3233,
      "Ġtogel": 3234,
      "ĠOb": 3235,
      "uangan": 3236,
      "Ġmenerima": 3237,
      "Ġbuilding": 3238,
      "ampak": 3239,
      "Ġkesel": 3240,
      "Ġjam": 3241,
      "akhir": 3242,
      "Ġkomun": 3243,
      "lumat": 3244,
      "ctor": 3245,
      "Ġuni": 3246,
      "Ġinstr": 3247,
      "ĠState": 3248,
      "Ġrepl": 3249,
      "Ġpick": 3250,
      "ps": 3251,
      "ĠChrist": 3252,
      "Ġtotal": 3253,
      "angu": 3254,
      "ĠSouth": 3255,
      "undang": 3256,
      "ĠDec": 3257,
      "Ġsimple": 3258,
      "Ġalmost": 3259,
      "ectiv": 3260,
      "Ġsedikit": 3261,
      "ĠWill": 3262,
      "Ġolahraga": 3263,
      "Ġroad": 3264,
      "ued": 3265,
      "ANG": 3266,
      "Ġphys": 3267,
      "Ġexperi": 3268,
      "Ġmeas": 3269,
      "hidmatan": 3270,
      "ĠPart": 3271,
      "90": 3272,
      "Ġfront": 3273,
      "Ġdiken": 3274,
      "70": 3275,
      "arta": 3276,
      "ĠAcc": 3277,
      "Ġhak": 3278,
      "Ġmenyediakan": 3279,
      "isan": 3280,
      "Ġdoc": 3281,
      "erb": 3282,
      "OS": 3283,
      "ĠAf": 3284,
      "Ġsebenar": 3285,
      "atanya": 3286,
      "Ġibu": 3287,
      "Ġkamu": 3288,
      "Ġbreak": 3289,
      "ĠMark": 3290,
      "AC": 3291,
      "Ġquite": 3292,
      "Ġnecess": 3293,
      "Ġclose": 3294,
      "adu": 3295,
      "uel": 3296,
      "Ġbekerja": 3297,
      "arti": 3298,
      "-y": 3299,
      "Ġheart": 3300,
      "Ġage": 3301,
      "Ġfinancial": 3302,
      "Ġrisk": 3303,
      "Ġemp": 3304,
      "enangkan": 3305,
      "ĠMenurut": 3306,
      "Ġpengh": 3307,
      "ĠNational": 3308,
      "ĠDon": 3309,
      "ĠQu": 3310,
      "osit": 3311,
      "Ġimpact": 3312,
      "Ġcepat": 3313,
      "Ġpasti": 3314,
      "plement": 3315,
      "ĠHis": 3316,
      "Ġprobably": 3317,
      "Ġpiec": 3318,
      "Ġdeb": 3319,
      "Ġdefin": 3320,
      "Ġmata": 3321,
      "Ġfail": 3322,
      "Ġoffice": 3323,
      "ĠIndia": 3324,
      "Ġphone": 3325,
      "icult": 3326,
      "Ġterk": 3327,
      "Ġach": 3328,
      "Ġdoub": 3329,
      "kaitan": 3330,
      "Ġseem": 3331,
      "Ġimprov": 3332,
      "Ġjoin": 3333,
      "Ġtujuan": 3334,
      "Ġbuku": 3335,
      "awai": 3336,
      "anks": 3337,
      "500": 3338,
      "ĠPre": 3339,
      "ification": 3340,
      "Ġseries": 3341,
      "etahuan": 3342,
      "Ġtraining": 3343,
      "men": 3344,
      "ĠTidak": 3345,
      "Ġstrategi": 3346,
      "Ġlikely": 3347,
      "Ġkl": 3348,
      "Ġ+": 3349,
      "Ġtal": 3350,
      "Ġsoftware": 3351,
      "35": 3352,
      "Ġprovides": 3353,
      "Ġusaha": 3354,
      "Ġsemasa": 3355,
      "Ġparticip": 3356,
      "Ġaktiviti": 3357,
      "uju": 3358,
      "Ġ>": 3359,
      "eel": 3360,
      "ĠDis": 3361,
      "ĠSur": 3362,
      "Ġincrease": 3363,
      "Ġkajian": 3364,
      "IM": 3365,
      "Ġisn": 3366,
      "urance": 3367,
      "Ġkartu": 3368,
      "ned": 3369,
      "Ġkemenangan": 3370,
      "Ġbab": 3371,
      "Ġmatter": 3372,
      "ĠReg": 3373,
      "Ġnothing": 3374,
      "ukum": 3375,
      "alahan": 3376,
      "ĠMich": 3377,
      "Ġaction": 3378,
      "Ġgol": 3379,
      "Ġnamun": 3380,
      "Ġareas": 3381,
      "ĠStr": 3382,
      "rove": 3383,
      "ĠOleh": 3384,
      "Ġyourself": 3385,
      "ĠRec": 3386,
      "antung": 3387,
      "Ġbahkan": 3388,
      "top": 3389,
      "ules": 3390,
      "ibr": 3391,
      "ounc": 3392,
      "Ġexist": 3393,
      "ĠWorld": 3394,
      "Ġensure": 3395,
      "Ġstaff": 3396,
      "Ġjelas": 3397,
      "ecut": 3398,
      "Ġmembawa": 3399,
      "ĠCom": 3400,
      "aturan": 3401,
      "ibatkan": 3402,
      "irst": 3403,
      "adar": 3404,
      "anggan": 3405,
      "Ġoptions": 3406,
      "Ġpendapat": 3407,
      "Ġcop": 3408,
      "enda": 3409,
      "ĠMas": 3410,
      "Ġ=": 3411,
      "ĠAh": 3412,
      "ĠGe": 3413,
      "Ġasked": 3414,
      "ahun": 3415,
      "Ġbin": 3416,
      "ms": 3417,
      "Ġtour": 3418,
      "Ġkese": 3419,
      "Ġnama": 3420,
      "Ġposition": 3421,
      "ainkan": 3422,
      "ĠEurope": 3423,
      "enteri": 3424,
      "Ġrole": 3425,
      "ged": 3426,
      "Ġpenggunaan": 3427,
      "Ġrather": 3428,
      "ĠTH": 3429,
      "Ġdiv": 3430,
      "ĠCor": 3431,
      "Ġyaitu": 3432,
      "Ġaudi": 3433,
      "angun": 3434,
      "Ġrasa": 3435,
      "ively": 3436,
      "Ġcirc": 3437,
      "iko": 3438,
      "Ġcontinue": 3439,
      "Ġabs": 3440,
      "Ġterut": 3441,
      "Ġhost": 3442,
      "ikm": 3443,
      "Ġsecurity": 3444,
      "action": 3445,
      "Ġvi": 3446,
      "Ġkeadaan": 3447,
      "Ġsaw": 3448,
      "eless": 3449,
      "Ġhubungan": 3450,
      "Ġliving": 3451,
      "araan": 3452,
      "Ġagama": 3453,
      "aged": 3454,
      "Ġpotential": 3455,
      "Ġdibuat": 3456,
      "enang": 3457,
      "Ġra": 3458,
      "Ġetc": 3459,
      "ĠApril": 3460,
      "ĠJadi": 3461,
      "Ġlegal": 3462,
      "aily": 3463,
      "Ġdog": 3464,
      "ING": 3465,
      "ilang": 3466,
      "minist": 3467,
      "Ġperubahan": 3468,
      "posed": 3469,
      "ospital": 3470,
      "Ġaddition": 3471,
      "nes": 3472,
      "ĠPert": 3473,
      "alnya": 3474,
      "ĠSept": 3475,
      "Ġcel": 3476,
      "ĠAM": 3477,
      "Ġcoming": 3478,
      "Ġpict": 3479,
      "ĠKeb": 3480,
      "ties": 3481,
      "Ġsimply": 3482,
      "Ġtaken": 3483,
      "Ġpoints": 3484,
      "Ġtindakan": 3485,
      "arget": 3486,
      "ĠBrit": 3487,
      "urusan": 3488,
      "Ġfoot": 3489,
      "ĠArt": 3490,
      "Ġneeded": 3491,
      "Ġcustomer": 3492,
      "Ġrequired": 3493,
      "Ġanti": 3494,
      "oke": 3495,
      "ening": 3496,
      "Ġsoon": 3497,
      "Ġhol": 3498,
      "esan": 3499,
      "gn": 3500,
      "ĠUnd": 3501,
      "ĠStates": 3502,
      "ĠSing": 3503,
      "Ġmodern": 3504,
      "Ġjour": 3505,
      "IL": 3506,
      "Ġtanah": 3507,
      "Ġmencapai": 3508,
      "Ġeducation": 3509,
      "vent": 3510,
      "ĠNorth": 3511,
      "ites": 3512,
      "ĠII": 3513,
      "inj": 3514,
      "ipun": 3515,
      "Ġhigher": 3516,
      "umer": 3517,
      "Ġbrand": 3518,
      "Ġmach": 3519,
      "ĠEl": 3520,
      "ĠPas": 3521,
      "Ġindividu": 3522,
      "Ġtext": 3523,
      "Ġwanted": 3524,
      "Ġmatch": 3525,
      "isme": 3526,
      "ĠAdd": 3527,
      "//": 3528,
      "alaupun": 3529,
      "icro": 3530,
      "31": 3531,
      "Ġnatural": 3532,
      "45": 3533,
      "ĠSchool": 3534,
      "ude": 3535,
      "Ġjud": 3536,
      "Ġadded": 3537,
      "Ġsimilar": 3538,
      "ĠTan": 3539,
      "Ġattack": 3540,
      "uma": 3541,
      "Ġways": 3542,
      "Ġengine": 3543,
      "Ġbis": 3544,
      "wan": 3545,
      "Ġassist": 3546,
      ")Ċ": 3547,
      "ĠFrom": 3548,
      "itif": 3549,
      "Ġthird": 3550,
      "come": 3551,
      "Ġcharacter": 3552,
      "Ġberdasarkan": 3553,
      "Ġhowever": 3554,
      "ĠKel": 3555,
      "Ġcomplete": 3556,
      "iring": 3557,
      "acc": 3558,
      "Ġmemahami": 3559,
      "istic": 3560,
      "emen": 3561,
      "ĠMes": 3562,
      "Ġcoll": 3563,
      "Ġlangkah": 3564,
      "Ġbed": 3565,
      "oph": 3566,
      "ĠAir": 3567,
      "oto": 3568,
      "Ġinn": 3569,
      "Ġpolitik": 3570,
      "Ġberkaitan": 3571,
      "ufact": 3572,
      "Ġofficial": 3573,
      "Ġberkata": 3574,
      "etimes": 3575,
      "Ġbehind": 3576,
      "Ġpros": 3577,
      "ilangan": 3578,
      "apun": 3579,
      "Ġfire": 3580,
      "Ġregard": 3581,
      "Ġproperty": 3582,
      "ayah": 3583,
      "Ġdiberikan": 3584,
      "Ġsix": 3585,
      "Ġmengatakan": 3586,
      "Ġkalau": 3587,
      "Ġhope": 3588,
      "verage": 3589,
      "Ġtrue": 3590,
      "ium": 3591,
      "ĠChris": 3592,
      "erjaan": 3593,
      "Ġproblems": 3594,
      "Ġjauh": 3595,
      "Ġunique": 3596,
      "Ġdest": 3597,
      "ze": 3598,
      "Ġconcern": 3599,
      "Ġkual": 3600,
      "Ġhon": 3601,
      "Ġarr": 3602,
      "Ġsize": 3603,
      "Ġpretty": 3604,
      "ades": 3605,
      "iver": 3606,
      "Ġhati": 3607,
      "Ġinstit": 3608,
      "ĠHigh": 3609,
      "Ġilmu": 3610,
      "Ġplayers": 3611,
      "://": 3612,
      "Ġfast": 3613,
      "Ġkids": 3614,
      "itting": 3615,
      "Ġef": 3616,
      "Ġ...": 3617,
      "-S": 3618,
      "ĠFac": 3619,
      "Ġautom": 3620,
      "faat": 3621,
      "ring": 3622,
      "ĠWeb": 3623,
      "nal": 3624,
      "Ġgeneral": 3625,
      "ĠDav": 3626,
      "ball": 3627,
      "Ġaccording": 3628,
      "ikal": 3629,
      "Ġsle": 3630,
      "iful": 3631,
      "Ġfinal": 3632,
      "ĠDe": 3633,
      "ĠSal": 3634,
      "antai": 3635,
      "Ġcur": 3636,
      "Ġbudaya": 3637,
      "ke": 3638,
      "Ġestab": 3639,
      "Ġberarti": 3640,
      "asikan": 3641,
      "Ġcourt": 3642,
      "Ġdepan": 3643,
      "Ġcaus": 3644,
      "etic": 3645,
      "Ġusually": 3646,
      "izing": 3647,
      "Ġskin": 3648,
      "Ġusers": 3649,
      "ires": 3650,
      "ahiran": 3651,
      "Ġsystems": 3652,
      "use": 3653,
      "ores": 3654,
      "Ġselepas": 3655,
      "Ġpeg": 3656,
      "ulkan": 3657,
      "ĠFeb": 3658,
      "ĠMod": 3659,
      "aced": 3660,
      "abel": 3661,
      "astic": 3662,
      "Ġbiasanya": 3663,
      "196": 3664,
      "Ġcommunic": 3665,
      "Ġworth": 3666,
      "ulai": 3667,
      "Ġdrive": 3668,
      "Ø§": 3669,
      "Ġoutside": 3670,
      "wak": 3671,
      "ck": 3672,
      "head": 3673,
      "Ġrendah": 3674,
      "Ġparty": 3675,
      "Ġkeputusan": 3676,
      "ĠWar": 3677,
      "Ġchoose": 3678,
      "Ġmenemukan": 3679,
      "Ġknowledge": 3680,
      "inks": 3681,
      "roid": 3682,
      "perc": 3683,
      "Ġmew": 3684,
      "Ġforward": 3685,
      "Ġwanita": 3686,
      "Ġassoci": 3687,
      "Ġregul": 3688,
      "back": 3689,
      "Ġcook": 3690,
      "Ġsebab": 3691,
      "Ġinside": 3692,
      "Ġpengetahuan": 3693,
      "Ġrepresent": 3694,
      "Ġfa": 3695,
      "ĠTV": 3696,
      "ĠNegara": 3697,
      "engg": 3698,
      "Ġcontrib": 3699,
      "Ġelse": 3700,
      "Ġmaklumat": 3701,
      "urun": 3702,
      "Ġbandar": 3703,
      "engaruh": 3704,
      "Ġprovided": 3705,
      "Ġground": 3706,
      "eful": 3707,
      "ĠAustral": 3708,
      "yah": 3709,
      "OL": 3710,
      "Ġdate": 3711,
      "Ġemb": 3712,
      "ĠKh": 3713,
      "olution": 3714,
      "anced": 3715,
      "99": 3716,
      "Ġconstr": 3717,
      "Ġmengalami": 3718,
      "Ġpred": 3719,
      "Ġdeath": 3720,
      "Ġtouch": 3721,
      "Ġcell": 3722,
      "ebr": 3723,
      "ĠPe": 3724,
      "Ġprior": 3725,
      "ĠMoh": 3726,
      "Ġcrit": 3727,
      "ungkan": 3728,
      "ifat": 3729,
      "irit": 3730,
      "ĠThen": 3731,
      "Ġevents": 3732,
      "Ġkew": 3733,
      "ĠProf": 3734,
      "Ġsuggest": 3735,
      "**": 3736,
      "redit": 3737,
      "Ġlonger": 3738,
      "Ġcountries": 3739,
      "Ġleave": 3740,
      "Ġcomfort": 3741,
      "ura": 3742,
      "Ġwhite": 3743,
      "Ġgrowth": 3744,
      "ĠHer": 3745,
      "edd": 3746,
      "Ġep": 3747,
      "ĠOnline": 3748,
      "ĠProgram": 3749,
      "Ġarticle": 3750,
      "ĠðŁ": 3751,
      "Ġdesigned": 3752,
      "ambahan": 3753,
      "Ġaccept": 3754,
      "ĠOct": 3755,
      "Ġpembangunan": 3756,
      "Ġsejak": 3757,
      "Ġsupaya": 3758,
      "Ġcontract": 3759,
      "Ġcontoh": 3760,
      "leb": 3761,
      "abah": 3762,
      "ilities": 3763,
      "urkan": 3764,
      "ologi": 3765,
      "ĠRev": 3766,
      "ply": 3767,
      "Ġrespond": 3768,
      "Ġwords": 3769,
      "Ġmenghasilkan": 3770,
      "Ġkini": 3771,
      "oring": 3772,
      "Ġtakes": 3773,
      "ihatan": 3774,
      "lis": 3775,
      "ĠDem": 3776,
      "Ġcause": 3777,
      "iet": 3778,
      "Ġcam": 3779,
      "Ġjuta": 3780,
      "Ġweeks": 3781,
      "ĠFin": 3782,
      "asaan": 3783,
      "abat": 3784,
      "ĠSa": 3785,
      "fl": 3786,
      "adian": 3787,
      "Ġing": 3788,
      "ises": 3789,
      "Ġkeluar": 3790,
      "Ġincludes": 3791,
      "Ġtreatment": 3792,
      "Ġje": 3793,
      "just": 3794,
      "Ġdok": 3795,
      "Ġdifficult": 3796,
      "Ġdeliver": 3797,
      "Ġextra": 3798,
      "Ġdraw": 3799,
      "iddle": 3800,
      "reg": 3801,
      "ĠSw": 3802,
      "ĠPark": 3803,
      "Ġlearning": 3804,
      "Ġberbeda": 3805,
      "Ġleaders": 3806,
      ".A": 3807,
      "Ġdrop": 3808,
      "Ġturut": 3809,
      "Ġpengguna": 3810,
      "Ġang": 3811,
      "Ġsense": 3812,
      "Ġadditional": 3813,
      "Ġvalu": 3814,
      "36": 3815,
      "Ġsong": 3816,
      "uth": 3817,
      "pose": 3818,
      "Ġfig": 3819,
      "ĠRead": 3820,
      "ĠPlease": 3821,
      "Ġchanges": 3822,
      "Ġrate": 3823,
      "Ġmoment": 3824,
      "Ġcasino": 3825,
      "no": 3826,
      "Ġtas": 3827,
      "Ġbak": 3828,
      "Ġfaktor": 3829,
      "ĠJanu": 3830,
      "eph": 3831,
      "ĠAng": 3832,
      "ulang": 3833,
      "Ġrecogn": 3834,
      "ĠSk": 3835,
      "Ġeks": 3836,
      "raf": 3837,
      "Ġveh": 3838,
      "Ġprim": 3839,
      "irkan": 3840,
      "Ġpaper": 3841,
      "Ġrecent": 3842,
      "yl": 3843,
      "Ġhair": 3844,
      "ĠNovember": 3845,
      "ederal": 3846,
      "-year": 3847,
      "Ġsun": 3848,
      "Ġvia": 3849,
      "dul": 3850,
      "elit": 3851,
      "Ġseems": 3852,
      "Ġready": 3853,
      "Ġaltern": 3854,
      "abatan": 3855,
      "Ġsuk": 3856,
      "OM": 3857,
      "put": 3858,
      "Ġshows": 3859,
      "Ġlah": 3860,
      "itten": 3861,
      "Ġinstead": 3862,
      "ishing": 3863,
      "88": 3864,
      "Ġkeuntungan": 3865,
      "IP": 3866,
      "ikiran": 3867,
      "ĠMarch": 3868,
      "ĠPR": 3869,
      "ida": 3870,
      "Ġterlalu": 3871,
      "ĠMah": 3872,
      "ajah": 3873,
      "ĠBi": 3874,
      "agu": 3875,
      "elt": 3876,
      "ĠGoogle": 3877,
      "Ġpark": 3878,
      "ĠPendidikan": 3879,
      "ĠIng": 3880,
      "ĠCenter": 3881,
      "-undang": 3882,
      "Ġtips": 3883,
      "Ġrunning": 3884,
      "Ġagre": 3885,
      "oes": 3886,
      "ext": 3887,
      "ĠBlack": 3888,
      "Ġwrong": 3889,
      "ulah": 3890,
      "my": 3891,
      "Ġstandard": 3892,
      "Ġversion": 3893,
      "oe": 3894,
      "Ġkalangan": 3895,
      "Ġthemselves": 3896,
      "Ġanyone": 3897,
      "Ġwall": 3898,
      "ukt": 3899,
      "Ġtre": 3900,
      "Ġupon": 3901,
      "ysis": 3902,
      "Ġremember": 3903,
      "eta": 3904,
      "ging": 3905,
      "Ġsales": 3906,
      "amanya": 3907,
      "Ġequip": 3908,
      ".)": 3909,
      "Ġlok": 3910,
      "Ġrefer": 3911,
      "ald": 3912,
      "Ġsubject": 3913,
      "Ġheld": 3914,
      "Ġstore": 3915,
      "erta": 3916,
      "iff": 3917,
      "Ġwriting": 3918,
      "Ġsuff": 3919,
      "anggap": 3920,
      "off": 3921,
      "Ġperkara": 3922,
      "Ġbott": 3923,
      "ĠAmerica": 3924,
      "Ġapplication": 3925,
      "Ġalat": 3926,
      "ĠSeptember": 3927,
      "Ġship": 3928,
      "Ġedited": 3929,
      "Ġnational": 3930,
      "Ġuser": 3931,
      "ici": 3932,
      "Ġopportunity": 3933,
      "Ġheav": 3934,
      "Ġkelas": 3935,
      "ĠCounty": 3936,
      "Ġconst": 3937,
      "Ġhappy": 3938,
      "ĠAug": 3939,
      "Ġregular": 3940,
      "ĠUp": 3941,
      "ĠIran": 3942,
      "Ġmedical": 3943,
      "aming": 3944,
      "Ġlangu": 3945,
      "usaha": 3946,
      "mb": 3947,
      "Ġdeep": 3948,
      "--------------------------------": 3949,
      "empatan": 3950,
      "ekat": 3951,
      "-anak": 3952,
      "IA": 3953,
      "Ġwear": 3954,
      "ĠWest": 3955,
      "Ġes": 3956,
      "Ġdecision": 3957,
      "epend": 3958,
      "tery": 3959,
      "ĠTrans": 3960,
      "Ġnetwork": 3961,
      "Ġjangan": 3962,
      "ĠAllah": 3963,
      "Ġsmart": 3964,
      "erd": 3965,
      "Ġreceived": 3966,
      "rup": 3967,
      "ĠInt": 3968,
      "ĠSE": 3969,
      "Ġprivate": 3970,
      "Ġcat": 3971,
      "Ġkuat": 3972,
      "-P": 3973,
      "Ġfight": 3974,
      "amatan": 3975,
      "rec": 3976,
      "Ġstyle": 3977,
      "Ġoriginal": 3978,
      "Ġhtt": 3979,
      "ĠCons": 3980,
      "ĠDay": 3981,
      "Ġlower": 3982,
      "Ġpolicy": 3983,
      "Ġtrip": 3984,
      "Ġball": 3985,
      "Ġterms": 3986,
      "ĠBu": 3987,
      "Ġinj": 3988,
      "Ġbox": 3989,
      "Ġlayanan": 3990,
      "Ġclick": 3991,
      "icles": 3992,
      "Ġchoice": 3993,
      "iah": 3994,
      "ainya": 3995,
      "</": 3996,
      "ĠMaj": 3997,
      "ociety": 3998,
      "Ġpelanggan": 3999,
      "ĠHealth": 4000,
      "Ġâ": 4001,
      "ĠMenteri": 4002,
      "ucture": 4003,
      "Ġreceive": 4004,
      "uanya": 4005,
      "Ġcolor": 4006,
      "ram": 4007,
      "atory": 4008,
      "inese": 4009,
      "Ġfile": 4010,
      "Ġill": 4011,
      "Ġreading": 4012,
      "hib": 4013,
      "inggu": 4014,
      "agement": 4015,
      "Ġnormal": 4016,
      "Ġmanufact": 4017,
      "Ġprint": 4018,
      "arter": 4019,
      "Ġcouple": 4020,
      "rast": 4021,
      "impi": 4022,
      "Ġsuccessful": 4023,
      "Ġpekerjaan": 4024,
      "Ġtahap": 4025,
      "\".": 4026,
      "Ġarg": 4027,
      "ohon": 4028,
      "ikel": 4029,
      "Ġtrust": 4030,
      "Ġdetails": 4031,
      "Ġtarget": 4032,
      "enuhi": 4033,
      "aves": 4034,
      "PS": 4035,
      "face": 4036,
      "You": 4037,
      "Ġwonder": 4038,
      "ĠPeny": 4039,
      "co": 4040,
      "jawab": 4041,
      "ĠIa": 4042,
      "-up": 4043,
      "Ġalam": 4044,
      "-orang": 4045,
      "ceed": 4046,
      "kipun": 4047,
      "ajib": 4048,
      "antuan": 4049,
      "Ġbeautiful": 4050,
      "Ġinsp": 4051,
      "erson": 4052,
      "-M": 4053,
      "-st": 4054,
      "Ġundang": 4055,
      "Ġability": 4056,
      "Ġplaying": 4057,
      "Ã©": 4058,
      "Ġentire": 4059,
      "ĠPresident": 4060,
      "Ġhy": 4061,
      "Ġeasily": 4062,
      "Ġexact": 4063,
      "Ġdemikian": 4064,
      "Ġkegi": 4065,
      "Ġthroughout": 4066,
      "Ġspeak": 4067,
      "Ġperingkat": 4068,
      "itter": 4069,
      "ampuan": 4070,
      "embang": 4071,
      "Ġskills": 4072,
      "Ġactivities": 4073,
      "Ġkegiatan": 4074,
      "ampir": 4075,
      "Ġgas": 4076,
      "Ġproduction": 4077,
      "ĠLet": 4078,
      "Ġparents": 4079,
      "Ġindic": 4080,
      "Ġcreated": 4081,
      "Ġperkembangan": 4082,
      "Ġprefer": 4083,
      "pen": 4084,
      "ham": 4085,
      "ĠOf": 4086,
      "ĠCour": 4087,
      "Ġprotect": 4088,
      "hatan": 4089,
      "Ġmalam": 4090,
      "Ġprofes": 4091,
      "Ġbecom": 4092,
      "Ġcand": 4093,
      "Ġlatest": 4094,
      "Ġaspek": 4095,
      "Ġcredit": 4096,
      "ksi": 4097,
      "ĠMac": 4098,
      "Ġlif": 4099,
      "Ġexpress": 4100,
      "Ġditer": 4101,
      "elling": 4102,
      "Ġdetail": 4103,
      "Ġkena": 4104,
      "Ġmobile": 4105,
      "Ġoption": 4106,
      "Ġbenefits": 4107,
      "Ġberken": 4108,
      "da": 4109,
      "ming": 4110,
      "If": 4111,
      "Ġmarketing": 4112,
      "adah": 4113,
      "Ġcool": 4114,
      "ĠUK": 4115,
      "Ġcases": 4116,
      "-based": 4117,
      "Ġpractice": 4118,
      "atas": 4119,
      "Ġinflu": 4120,
      "amah": 4121,
      "engkap": 4122,
      "ĠTech": 4123,
      "IK": 4124,
      "alik": 4125,
      "iling": 4126,
      "mm": 4127,
      "Ġlate": 4128,
      "ashing": 4129,
      "mas": 4130,
      "Ġmention": 4131,
      "akes": 4132,
      "Ġmass": 4133,
      "Ġhendaklah": 4134,
      "Ġanggota": 4135,
      "Ġkatanya": 4136,
      "Ġbisnis": 4137,
      "AB": 4138,
      "Ġkhusus": 4139,
      "ikap": 4140,
      "Ġsebenarnya": 4141,
      "Ġpembayaran": 4142,
      "ĠKami": 4143,
      "Ġconditions": 4144,
      "ĠMemb": 4145,
      "ekatan": 4146,
      "Ġsafety": 4147,
      "Ġlives": 4148,
      "eber": 4149,
      "ocr": 4150,
      "Ġhands": 4151,
      "Ġlost": 4152,
      "niagaan": 4153,
      "Ġmix": 4154,
      "âĢĻd": 4155,
      "ĠJune": 4156,
      "Ġsafe": 4157,
      "ifikasi": 4158,
      "go": 4159,
      "Ġpolice": 4160,
      "enced": 4161,
      "ĠDire": 4162,
      "aign": 4163,
      "Ġsett": 4164,
      "oom": 4165,
      "Ġhop": 4166,
      "book": 4167,
      "Ġdeg": 4168,
      "Ġquickly": 4169,
      "onstr": 4170,
      "-to": 4171,
      "Ġruang": 4172,
      "AY": 4173,
      "Ġdescrib": 4174,
      "Ġsaying": 4175,
      "Ġrecently": 4176,
      "Ġmere": 4177,
      "Ġspeed": 4178,
      "ĠRed": 4179,
      "Ġitself": 4180,
      "ikmati": 4181,
      "Ġhukum": 4182,
      "Ġlooks": 4183,
      "Ġenh": 4184,
      "Ġviol": 4185,
      "Ġinvestig": 4186,
      "Ġitems": 4187,
      "anggungjawab": 4188,
      "umi": 4189,
      "Ġimmedi": 4190,
      "amanan": 4191,
      "ĠMost": 4192,
      "ought": 4193,
      "Ġcareer": 4194,
      "anyakan": 4195,
      "ampilan": 4196,
      "Ġgoes": 4197,
      "Ġcurrently": 4198,
      "oice": 4199,
      "ĠEvery": 4200,
      "etapkan": 4201,
      "ĠInter": 4202,
      "etak": 4203,
      "Ġot": 4204,
      "Ġdeposit": 4205,
      "de": 4206,
      "Ġtown": 4207,
      "ĠIN": 4208,
      "Ġformer": 4209,
      "Ġhab": 4210,
      "uced": 4211,
      "Ġaman": 4212,
      "anch": 4213,
      "Ġramai": 4214,
      "Ġchance": 4215,
      "Ġperkhidmatan": 4216,
      "ague": 4217,
      "Ġpenuh": 4218,
      "Ġbadan": 4219,
      "Ġintrod": 4220,
      "ĠPlay": 4221,
      "ermin": 4222,
      "Ġfresh": 4223,
      "Ġscreen": 4224,
      "uge": 4225,
      "Ġbir": 4226,
      "Ġkumpulan": 4227,
      "Ġkuasa": 4228,
      "ĠAut": 4229,
      "ĠAre": 4230,
      "Ġswe": 4231,
      "Ġsemula": 4232,
      "iden": 4233,
      "Ġmelibatkan": 4234,
      "Ġpengajaran": 4235,
      "atives": 4236,
      "Ġsn": 4237,
      "IR": 4238,
      "Ġhotel": 4239,
      "Ġtri": 4240,
      "Ġvict": 4241,
      "Ġcosts": 4242,
      "Ġcab": 4243,
      "Ġrecommend": 4244,
      "Ġpasar": 4245,
      "):": 4246,
      "ux": 4247,
      "Ġallows": 4248,
      "Ġorganisasi": 4249,
      "Ġmorning": 4250,
      "Ġmengetahui": 4251,
      "ĠStud": 4252,
      "ĠIsra": 4253,
      "Ġsat": 4254,
      "Ġmeeting": 4255,
      "amed": 4256,
      "Ġrights": 4257,
      "erh": 4258,
      "Ġperh": 4259,
      "Ġple": 4260,
      "Ġapply": 4261,
      "Ch": 4262,
      "mit": 4263,
      "ĠBus": 4264,
      "itary": 4265,
      "Ġeffective": 4266,
      "ĠHol": 4267,
      "percaya": 4268,
      "ĠFirst": 4269,
      "ewan": 4270,
      "anger": 4271,
      "32": 4272,
      "Ġberas": 4273,
      "idge": 4274,
      "Ġconnect": 4275,
      "light": 4276,
      "ĠEven": 4277,
      "vest": 4278,
      "iction": 4279,
      "Ġavoid": 4280,
      "Ġboard": 4281,
      "ients": 4282,
      "illing": 4283,
      "ison": 4284,
      "oga": 4285,
      "Ġliter": 4286,
      "Ġobs": 4287,
      "Ġimprove": 4288,
      "Ġrelated": 4289,
      "Ġseek": 4290,
      "ĠVal": 4291,
      "Ġweight": 4292,
      "Ġlaunch": 4293,
      "Ġbuilt": 4294,
      "Ġdaerah": 4295,
      "utup": 4296,
      "Ġpolitical": 4297,
      "ĠHouse": 4298,
      "Ġberkenaan": 4299,
      "Ġuj": 4300,
      "ĠInternational": 4301,
      "ension": 4302,
      "Ġones": 4303,
      "war": 4304,
      "Ġnice": 4305,
      "Ġstudent": 4306,
      "??": 4307,
      "Ġfair": 4308,
      "Ġtubuh": 4309,
      "ĠPost": 4310,
      "ingkatan": 4311,
      "ĠNegeri": 4312,
      "erve": 4313,
      "Ġblood": 4314,
      "Ġamb": 4315,
      "ha": 4316,
      "Ġwoman": 4317,
      "Ġprograms": 4318,
      "Ġloss": 4319,
      "Ġpanjang": 4320,
      "Ġmasing": 4321,
      "utuhkan": 4322,
      "Ġcoun": 4323,
      "Ġmacam": 4324,
      "iding": 4325,
      "Ġinternational": 4326,
      "udara": 4327,
      "Ġmemainkan": 4328,
      "ges": 4329,
      "ipe": 4330,
      "atasi": 4331,
      "Ġnecessary": 4332,
      "Ġinvolved": 4333,
      "Ġsejarah": 4334,
      "ĠWhy": 4335,
      "ĠAN": 4336,
      "ĠMon": 4337,
      "Ġkarya": 4338,
      "Ġattention": 4339,
      "emat": 4340,
      "Ġped": 4341,
      "Ġunit": 4342,
      "Ġkap": 4343,
      "Ġblock": 4344,
      "ĠFacebook": 4345,
      "Ġsect": 4346,
      "Ġshall": 4347,
      "ĠPat": 4348,
      "Ġmerasa": 4349,
      "-mana": 4350,
      "ĠâĢ¦": 4351,
      "Ġextrem": 4352,
      "right": 4353,
      "Ġnom": 4354,
      "ĠAnt": 4355,
      "Ġworked": 4356,
      "Ġmental": 4357,
      ":Ċ": 4358,
      "âĢĿ.": 4359,
      "ĠPerk": 4360,
      "Ġgel": 4361,
      "Ġslow": 4362,
      "ĠBritish": 4363,
      "Ġdaily": 4364,
      "33": 4365,
      "egang": 4366,
      "Ġtools": 4367,
      "yataan": 4368,
      "uncul": 4369,
      "andingan": 4370,
      "inasi": 4371,
      "ĠPak": 4372,
      "used": 4373,
      "aksanaan": 4374,
      "ĠGet": 4375,
      "Ġresources": 4376,
      "ĠAlso": 4377,
      "Ġapakah": 4378,
      "rown": 4379,
      "acing": 4380,
      "Ġgoal": 4381,
      "Ġment": 4382,
      "hatian": 4383,
      "elitian": 4384,
      "asons": 4385,
      "airs": 4386,
      "Ġkat": 4387,
      "ĠSan": 4388,
      "ĠCara": 4389,
      "75": 4390,
      "-A": 4391,
      "Ġlevels": 4392,
      "ĠKep": 4393,
      "ĠKual": 4394,
      "Ġstatus": 4395,
      "Ġmenghad": 4396,
      "Ġencour": 4397,
      "entingan": 4398,
      "Ġsports": 4399,
      "bor": 4400,
      "Ġstrength": 4401,
      "Ġcorrect": 4402,
      "Ġincluded": 4403,
      "Ġproviding": 4404,
      "UL": 4405,
      "azing": 4406,
      "yak": 4407,
      "ĠAmerika": 4408,
      "ession": 4409,
      "embaga": 4410,
      "Ġthinking": 4411,
      "Ġtugas": 4412,
      "Ġjack": 4413,
      "Ġsurpr": 4414,
      "Ġsuka": 4415,
      "itkan": 4416,
      "alian": 4417,
      "ground": 4418,
      "Ġleading": 4419,
      "Ġkaum": 4420,
      "eluarkan": 4421,
      "Ġsegala": 4422,
      "ĠBen": 4423,
      "Ġsqu": 4424,
      "Ġmaybe": 4425,
      "me": 4426,
      "Ġround": 4427,
      "ĠProd": 4428,
      "UM": 4429,
      "Ġsource": 4430,
      "ampung": 4431,
      "Ġfeed": 4432,
      "ondon": 4433,
      "Ġexcept": 4434,
      "Ġrelig": 4435,
      "Ġdistrib": 4436,
      "ompok": 4437,
      "Ġkemahiran": 4438,
      "ĠDia": 4439,
      "Ġimplement": 4440,
      "Ġbarang": 4441,
      "Ġenter": 4442,
      "Ġsiswa": 4443,
      "oul": 4444,
      "Ġeat": 4445,
      "Ġdisebut": 4446,
      "zy": 4447,
      "Ġbooks": 4448,
      "elaskan": 4449,
      "Ġprojects": 4450,
      "Ġbantuan": 4451,
      "Ġrelease": 4452,
      "inter": 4453,
      "ĠKing": 4454,
      "ĠCalif": 4455,
      "PR": 4456,
      "ĠAct": 4457,
      "Ġreported": 4458,
      "ĠMed": 4459,
      "Ġmembaca": 4460,
      "alanan": 4461,
      "bas": 4462,
      "Ġpenduduk": 4463,
      "Ġvariety": 4464,
      "Ġsituation": 4465,
      "atus": 4466,
      "Ġmultiple": 4467,
      "ĠPEN": 4468,
      "ĠDown": 4469,
      "ĠFriday": 4470,
      "erluan": 4471,
      "-benar": 4472,
      "pot": 4473,
      "icient": 4474,
      "Ġcomment": 4475,
      "ĠJuly": 4476,
      "Ġmaks": 4477,
      "ipt": 4478,
      "Ġmyself": 4479,
      "Ġtersedia": 4480,
      "Ġwide": 4481,
      "merc": 4482,
      "Ġsave": 4483,
      "Ġmuncul": 4484,
      "thern": 4485,
      "Ġsched": 4486,
      "Ġanswer": 4487,
      "sych": 4488,
      "adiah": 4489,
      "Ġcash": 4490,
      "ĠCO": 4491,
      "Ġattemp": 4492,
      "ĠFebru": 4493,
      "Ġunc": 4494,
      "ecause": 4495,
      "ĠMat": 4496,
      "Ġradi": 4497,
      "add": 4498,
      "Ġstuff": 4499,
      "Ġmother": 4500,
      "EC": 4501,
      "Ġberf": 4502,
      "Ġpatients": 4503,
      "Ġisu": 4504,
      "Ġstra": 4505,
      "Ġdise": 4506,
      "urt": 4507,
      "Ġinsurance": 4508,
      "ĠKen": 4509,
      "inan": 4510,
      "Ġefek": 4511,
      "ĠSund": 4512,
      "Ġterutama": 4513,
      "eness": 4514,
      "ulation": 4515,
      "ĠRuss": 4516,
      "ĠBahasa": 4517,
      "ĠWell": 4518,
      "rasi": 4519,
      "ivil": 4520,
      "Ġamat": 4521,
      "Ġcampaign": 4522,
      "ST": 4523,
      "Ġcross": 4524,
      "Ġgroups": 4525,
      "ĠAny": 4526,
      "vey": 4527,
      "rel": 4528,
      "inary": 4529,
      "Ġexcell": 4530,
      "95": 4531,
      "Ġjawab": 4532,
      "ĠGener": 4533,
      "Ġannoun": 4534,
      "Ġpusat": 4535,
      "Ġgets": 4536,
      "wood": 4537,
      "engar": 4538,
      "Ġdiperl": 4539,
      "akang": 4540,
      "ki": 4541,
      "ĠInstit": 4542,
      "300": 4543,
      "ĠAssoci": 4544,
      "Ġrout": 4545,
      "Ġpenyakit": 4546,
      "ĠBet": 4547,
      "Ġik": 4548,
      "Ġti": 4549,
      "bu": 4550,
      "34": 4551,
      "ĠWind": 4552,
      "Ġdoor": 4553,
      "Ġprices": 4554,
      "Ġtypes": 4555,
      "erian": 4556,
      "Ġwel": 4557,
      "Ġwasn": 4558,
      "Ġuns": 4559,
      "ĠEnglish": 4560,
      "ona": 4561,
      "rought": 4562,
      "Ġaverage": 4563,
      "Ġbecame": 4564,
      "Ġremov": 4565,
      "'d": 4566,
      "ĠPal": 4567,
      "Ġindividuals": 4568,
      "Ġguy": 4569,
      "195": 4570,
      "ĠPet": 4571,
      "Ġbegan": 4572,
      "Ġbila": 4573,
      "ĠTim": 4574,
      "ological": 4575,
      "Ġpergi": 4576,
      "ĠNet": 4577,
      "ebutuhan": 4578,
      "Ġplant": 4579,
      "Ġkesehatan": 4580,
      "ĠJack": 4581,
      "Ġdrug": 4582,
      "ble": 4583,
      "Ġhelps": 4584,
      "Ġclients": 4585,
      "osing": 4586,
      "aven": 4587,
      "Ġmovie": 4588,
      "Ġparts": 4589,
      "Ġarch": 4590,
      "Ġpresident": 4591,
      "Ġlic": 4592,
      "Ġadminist": 4593,
      "Ġpengg": 4594,
      "Ġroll": 4595,
      "pro": 4596,
      "Ġcomplex": 4597,
      "ĠSub": 4598,
      "Ġemerg": 4599,
      "ĠEar": 4600,
      "Ġwife": 4601,
      "ĠTet": 4602,
      "egas": 4603,
      "agangan": 4604,
      "ĠAfric": 4605,
      "Ġplayer": 4606,
      "lear": 4607,
      "Ġeyes": 4608,
      "Ġren": 4609,
      "engaruhi": 4610,
      "Ġmaterials": 4611,
      "UT": 4612,
      "inggi": 4613,
      "Ġintegr": 4614,
      "Ġled": 4615,
      "Ġsold": 4616,
      "ius": 4617,
      "ulum": 4618,
      "Ġtrading": 4619,
      "ornia": 4620,
      "Ġgiving": 4621,
      "Ġflow": 4622,
      "Ġlanguage": 4623,
      "Ġtraditional": 4624,
      "ĠKerajaan": 4625,
      "Ġinnov": 4626,
      "adb": 4627,
      "Ġexpert": 4628,
      "Ġlel": 4629,
      "ouncil": 4630,
      "isions": 4631,
      "Ġnature": 4632,
      "Ġkos": 4633,
      "Ġseni": 4634,
      "uktur": 4635,
      ".M": 4636,
      "-masing": 4637,
      "ĠAz": 4638,
      "mp": 4639,
      "asaran": 4640,
      "Ġmencoba": 4641,
      "idents": 4642,
      "antan": 4643,
      "ĠDepartment": 4644,
      "Ġpath": 4645,
      "Ġcry": 4646,
      "erlukan": 4647,
      "Ġmenjalankan": 4648,
      "St": 4649,
      "Ġdiscover": 4650,
      "ĠAbdul": 4651,
      "Ġdecided": 4652,
      "Ġrelev": 4653,
      "hatikan": 4654,
      "ription": 4655,
      "ulau": 4656,
      "Ġwritten": 4657,
      "ĠAda": 4658,
      "par": 4659,
      "Ġwish": 4660,
      "iks": 4661,
      "pm": 4662,
      "aries": 4663,
      "Ġkemampuan": 4664,
      "Ġkulit": 4665,
      "Ġgave": 4666,
      "ĠRem": 4667,
      "Ġsuppl": 4668,
      "Ġpull": 4669,
      "Ġbay": 4670,
      "ĠAsia": 4671,
      "Ġexpected": 4672,
      "Ġsleep": 4673,
      "Ġfelt": 4674,
      "ilayah": 4675,
      "Ġevidence": 4676,
      "ĠInternet": 4677,
      "Ġsebelumnya": 4678,
      "Ġlocation": 4679,
      "ropri": 4680,
      "ĠIS": 4681,
      "Ġunderstanding": 4682,
      "Ġhampir": 4683,
      "As": 4684,
      "Ġtowards": 4685,
      "Ġpromot": 4686,
      "ĠMany": 4687,
      "Ġtingkat": 4688,
      "Ġdead": 4689,
      "ĠLondon": 4690,
      "Ġsebanyak": 4691,
      "mercial": 4692,
      "ero": 4693,
      "Ġcomputer": 4694,
      "55": 4695,
      "aturday": 4696,
      "ĠCr": 4697,
      "bon": 4698,
      "Ġcenter": 4699,
      "Ġpenyel": 4700,
      "ema": 4701,
      "icks": 4702,
      "Ġfarm": 4703,
      "Ġfat": 4704,
      ").Ċ": 4705,
      "iles": 4706,
      "Ġterpercaya": 4707,
      "Ġtable": 4708,
      "Ġfeature": 4709,
      "Ġmemerlukan": 4710,
      "uments": 4711,
      "Ġphysical": 4712,
      "Ġsyarik": 4713,
      "Ġfavorite": 4714,
      "lin": 4715,
      "itely": 4716,
      "Ġimage": 4717,
      "Ġdisplay": 4718,
      "________": 4719,
      "Ġtok": 4720,
      "Ġrequest": 4721,
      "Ġdirectly": 4722,
      "ĠSetelah": 4723,
      "erman": 4724,
      "Ġinterview": 4725,
      "ĠJanuary": 4726,
      "Ġheard": 4727,
      "Ġsummer": 4728,
      "Ġplans": 4729,
      "enty": 4730,
      "apt": 4731,
      "ĠOver": 4732,
      "Ġconsist": 4733,
      "ĠLaw": 4734,
      "Ġconvers": 4735,
      "Ġtransfer": 4736,
      "adakan": 4737,
      "Ġsyarikat": 4738,
      "Ġlem": 4739,
      "ĠOctober": 4740,
      "ĠAustralia": 4741,
      "Ġcoach": 4742,
      "ĠCommun": 4743,
      "lier": 4744,
      "ĠEv": 4745,
      "Ġmempert": 4746,
      "Ġver": 4747,
      "Ġhous": 4748,
      "arr": 4749,
      "Ġbehav": 4750,
      "Ġsolution": 4751,
      "Ġpenulis": 4752,
      "Ġdevice": 4753,
      "Ġconduct": 4754,
      "Ġtast": 4755,
      "Ġmax": 4756,
      "Ġsites": 4757,
      "ica": 4758,
      "tual": 4759,
      "Ġhuge": 4760,
      "Ġkonsep": 4761,
      "hood": 4762,
      "ĠSara": 4763,
      "Ġstates": 4764,
      "Ġideas": 4765,
      "Ġstress": 4766,
      "Ġsepar": 4767,
      "ube": 4768,
      "Ġcondition": 4769,
      "ellow": 4770,
      "ĠChar": 4771,
      "Ġpartners": 4772,
      "Ġfix": 4773,
      "amad": 4774,
      "Ġmembeli": 4775,
      "Ġcelebr": 4776,
      "Ġanim": 4777,
      "Ġprevent": 4778,
      "Ġcit": 4779,
      "Ġmotor": 4780,
      "Ġmemenuhi": 4781,
      "Ġsubst": 4782,
      "Ġpush": 4783,
      "reh": 4784,
      "ĠFree": 4785,
      "mon": 4786,
      "Ġmaupun": 4787,
      "ĠAugust": 4788,
      "Ġgreen": 4789,
      "Ġeconomic": 4790,
      "Ġsometimes": 4791,
      "Ġdream": 4792,
      "rows": 4793,
      "Ġpurchase": 4794,
      "ĠCalifornia": 4795,
      "Ġessential": 4796,
      "Ġbuah": 4797,
      "iam": 4798,
      "Ġadanya": 4799,
      "Ġculture": 4800,
      "dr": 4801,
      "Ġhighly": 4802,
      "Ġ@": 4803,
      "Ġdating": 4804,
      "Ġrace": 4805,
      "formation": 4806,
      "Ġhimself": 4807,
      "ĠPort": 4808,
      "Ġprogress": 4809,
      "Ġgives": 4810,
      "Ġstock": 4811,
      "Ġqual": 4812,
      "Ġkond": 4813,
      "Ġstudi": 4814,
      "Ġmid": 4815,
      "ĠDavid": 4816,
      "ĠArab": 4817,
      "Ġtun": 4818,
      "ops": 4819,
      "ĠJapan": 4820,
      "ĠOnce": 4821,
      "atuh": 4822,
      "Ġconsidered": 4823,
      "ĠST": 4824,
      "Ġmenjadikan": 4825,
      "ĠMet": 4826,
      "ĠBagi": 4827,
      "iance": 4828,
      "Ġbusinesses": 4829,
      "Ġappl": 4830,
      "Ġdiperlukan": 4831,
      "Ġlimited": 4832,
      "udahan": 4833,
      "Ġperniagaan": 4834,
      "Ġperangkat": 4835,
      "erap": 4836,
      "ĠSingap": 4837,
      "Ġhospital": 4838,
      "ungkinan": 4839,
      "Ġanalysis": 4840,
      "Ġperd": 4841,
      "Ġadvant": 4842,
      "aranya": 4843,
      "awal": 4844,
      "onday": 4845,
      "more": 4846,
      "yn": 4847,
      "Ġtangg": 4848,
      "Ġprec": 4849,
      "Ġlack": 4850,
      "ungkinkan": 4851,
      "Ġequipment": 4852,
      "ustain": 4853,
      "Ġpemerintah": 4854,
      "Ġbiaya": 4855,
      "ĠGroup": 4856,
      "Ġakhirnya": 4857,
      ".P": 4858,
      "Ġdaya": 4859,
      "-apa": 4860,
      "Ġexerc": 4861,
      "aju": 4862,
      "Ġkebutuhan": 4863,
      "Ġcompletely": 4864,
      "Ġpaid": 4865,
      "Ġtentu": 4866,
      "Ġpiece": 4867,
      "Ġsuper": 4868,
      "Ġrespect": 4869,
      "umbuhan": 4870,
      "37": 4871,
      "Ġstarting": 4872,
      "Ġrek": 4873,
      "ĠHot": 4874,
      "antik": 4875,
      "Ġkesan": 4876,
      "ekut": 4877,
      "ables": 4878,
      "Ġprofesional": 4879,
      "set": 4880,
      "Ġdulu": 4881,
      "Ġcharge": 4882,
      "hold": 4883,
      "Ġneigh": 4884,
      "Ġmand": 4885,
      "Ġitem": 4886,
      "Ġnov": 4887,
      "where": 4888,
      "Ġtambahan": 4889,
      "asakan": 4890,
      "Ġlingk": 4891,
      "lan": 4892,
      "ker": 4893,
      "asis": 4894,
      "imately": 4895,
      "Ġteknik": 4896,
      "ooth": 4897,
      "Ġkalian": 4898,
      "Ġnut": 4899,
      "Ġwrite": 4900,
      "istik": 4901,
      "Ġkeperluan": 4902,
      "Ġdark": 4903,
      "Ġkan": 4904,
      "Ġfirm": 4905,
      "Ġlatihan": 4906,
      "idik": 4907,
      "Ġcollection": 4908,
      "ĠOut": 4909,
      "Ġemot": 4910,
      "aught": 4911,
      "Ġfine": 4912,
      "ael": 4913,
      "Ġspend": 4914,
      "uruhan": 4915,
      "Ġtransport": 4916,
      "rik": 4917,
      "ementerian": 4918,
      "ĠUN": 4919,
      "ungk": 4920,
      "eberapa": 4921,
      "Ġinteresting": 4922,
      "Ġnation": 4923,
      "Ġpositive": 4924,
      "Ġult": 4925,
      "Ġmuda": 4926,
      "Ġperjalanan": 4927,
      "Ġdahulu": 4928,
      "Ġkeber": 4929,
      "ĠDari": 4930,
      "Ġorganization": 4931,
      "ĠPhil": 4932,
      ".org": 4933,
      "Ġwants": 4934,
      "ĠIsrael": 4935,
      "atisf": 4936,
      "ajari": 4937,
      "Ġden": 4938,
      "ears": 4939,
      "Ġeffort": 4940,
      "Ġplanning": 4941,
      "ĠTex": 4942,
      "Ġfully": 4943,
      "ION": 4944,
      "ĠMor": 4945,
      "ĠBand": 4946,
      "IV": 4947,
      "ĠSebagai": 4948,
      "ford": 4949,
      "Ġseger": 4950,
      "Ġsupply": 4951,
      "Ġvot": 4952,
      "38": 4953,
      "atih": 4954,
      "aham": 4955,
      "Ġbahagian": 4956,
      "PM": 4957,
      "Ġartikel": 4958,
      "Ġsolutions": 4959,
      "Ġacara": 4960,
      "Ġson": 4961,
      "01": 4962,
      "lm": 4963,
      "Ġfitur": 4964,
      "Ġplayed": 4965,
      "Ġdifference": 4966,
      "word": 4967,
      "ĠNor": 4968,
      "ĠChinese": 4969,
      "ĠNews": 4970,
      "Ġoverall": 4971,
      "overn": 4972,
      "umbers": 4973,
      "ĠRel": 4974,
      "Ġdocument": 4975,
      "iranya": 4976,
      "Ġstatement": 4977,
      "uri": 4978,
      "Ġreflect": 4979,
      "Ġwait": 4980,
      "Ġgar": 4981,
      "board": 4982,
      "empuan": 4983,
      "ipl": 4984,
      "Ġindepend": 4985,
      "orial": 4986,
      "Ġbul": 4987,
      "Ġmenyatakan": 4988,
      "ashion": 4989,
      "Ġpelajaran": 4990,
      "ĠSaturday": 4991,
      "Ġlocated": 4992,
      "ĠDel": 4993,
      "emu": 4994,
      "Ġstraight": 4995,
      "Ġsemp": 4996,
      "Ġmenentukan": 4997,
      "yt": 4998,
      "Ġcode": 4999,
      "Ġmengk": 5000,
      "Ġkerj": 5001,
      "ĠTHE": 5002,
      "Ġpendapatan": 5003,
      "-B": 5004,
      "active": 5005,
      "amaan": 5006,
      "ĠMer": 5007,
      "river": 5008,
      "ĠApakah": 5009,
      "Ġcreating": 5010,
      "eff": 5011,
      "Ġopportunities": 5012,
      "ĠResearch": 5013,
      "ĠIndian": 5014,
      "Ġsection": 5015,
      "ancy": 5016,
      "urat": 5017,
      "Ġterakhir": 5018,
      "asama": 5019,
      "uba": 5020,
      "Ġspirit": 5021,
      "Ġberjalan": 5022,
      ".C": 5023,
      "ĠSunday": 5024,
      "Ġsegera": 5025,
      "48": 5026,
      "Ġgold": 5027,
      "Ġdianggap": 5028,
      "Ġfunct": 5029,
      "Ġthreat": 5030,
      "Ġmengikuti": 5031,
      "ĠBusiness": 5032,
      "here": 5033,
      "Ġresponse": 5034,
      "Ġcarry": 5035,
      "Ġbagus": 5036,
      "Ġreduce": 5037,
      "Ġmau": 5038,
      "ibly": 5039,
      "Ġknew": 5040,
      "Ġsuit": 5041,
      "Ġbangsa": 5042,
      "ports": 5043,
      "Ġamazing": 5044,
      "Ġpressure": 5045,
      "aint": 5046,
      "Ġrich": 5047,
      "Ġgrowing": 5048,
      "Ġimag": 5049,
      "..Ċ": 5050,
      "Ġstream": 5051,
      "Ġbelakang": 5052,
      "osis": 5053,
      "Ġmenjaga": 5054,
      "Ġbillion": 5055,
      "ecutive": 5056,
      "ilies": 5057,
      "phone": 5058,
      "Ġhistor": 5059,
      "ba": 5060,
      "Ġangka": 5061,
      "isl": 5062,
      "ĠAv": 5063,
      "Ġmessage": 5064,
      "Ġbudget": 5065,
      "Ġrequirements": 5066,
      "Ġaim": 5067,
      "Ġadult": 5068,
      "ĠCourt": 5069,
      "Ġeffects": 5070,
      "Ġbrought": 5071,
      "Ġmengel": 5072,
      "kses": 5073,
      "uti": 5074,
      "Ġemployees": 5075,
      "ocks": 5076,
      "ript": 5077,
      "Ġkota": 5078,
      "asy": 5079,
      "jak": 5080,
      "Ġexam": 5081,
      "ĠSlot": 5082,
      "Ġlengkap": 5083,
      "amer": 5084,
      "RE": 5085,
      "Ġempat": 5086,
      "Ġmemungkinkan": 5087,
      "Ġfeeling": 5088,
      "ĠStreet": 5089,
      "ĠEast": 5090,
      "Ġcerita": 5091,
      "Ġperhatian": 5092,
      "arily": 5093,
      "band": 5094,
      "Un": 5095,
      "cm": 5096,
      "estern": 5097,
      "Ġpekerja": 5098,
      "Ġste": 5099,
      "ukung": 5100,
      "Ġtrade": 5101,
      "Ġrestaur": 5102,
      "Ġlima": 5103,
      "Ġtemper": 5104,
      "Ġwang": 5105,
      "Ġteman": 5106,
      "Ġprevious": 5107,
      "AG": 5108,
      "ums": 5109,
      "iced": 5110,
      "Ġmest": 5111,
      "Ġconcept": 5112,
      "unci": 5113,
      "Ġpemimpin": 5114,
      "Ġinvestment": 5115,
      "What": 5116,
      "Ġconfirm": 5117,
      "IG": 5118,
      "ĠSol": 5119,
      "Ġplaces": 5120,
      "Ġtried": 5121,
      "Ġpo": 5122,
      "Ġrisiko": 5123,
      "ĠIns": 5124,
      "ajak": 5125,
      "Ġtinggal": 5126,
      "ĠDatuk": 5127,
      "Ġorganiz": 5128,
      "Ġbroad": 5129,
      "encana": 5130,
      "ĠPut": 5131,
      "Ġakun": 5132,
      "ĠPER": 5133,
      "Ġmengur": 5134,
      "Ġclub": 5135,
      "?\"": 5136,
      "Ġmedic": 5137,
      "ened": 5138,
      "orge": 5139,
      "Ġtool": 5140,
      "ca": 5141,
      "Ġhum": 5142,
      "Ġhealthy": 5143,
      "ĠUt": 5144,
      "okok": 5145,
      "pe": 5146,
      "esus": 5147,
      "ashington": 5148,
      "Ġberjaya": 5149,
      "esu": 5150,
      "itation": 5151,
      "isional": 5152,
      "ĠPC": 5153,
      "Ġkepentingan": 5154,
      "akai": 5155,
      "Ġtalking": 5156,
      "Ġhour": 5157,
      "ĠKuala": 5158,
      "ĠLat": 5159,
      "Ġterlibat": 5160,
      "Ġgambar": 5161,
      "Ġfather": 5162,
      "Ġdrink": 5163,
      "Ġtechn": 5164,
      "Ġexactly": 5165,
      "Ġdry": 5166,
      "aksud": 5167,
      "ĠBest": 5168,
      "ĠSarawak": 5169,
      "Ġeasi": 5170,
      "Ġalone": 5171,
      "Ġkaedah": 5172,
      "TS": 5173,
      "Ġok": 5174,
      "ĠApple": 5175,
      "lebih": 5176,
      "44": 5177,
      "Ġassess": 5178,
      "esis": 5179,
      "mar": 5180,
      "Ġstories": 5181,
      "ĠService": 5182,
      "Ġcup": 5183,
      "ĠMonday": 5184,
      "Ġfloor": 5185,
      "Ġwood": 5186,
      "Ġguys": 5187,
      "Ġdiberi": 5188,
      "-C": 5189,
      "Ġmeningg": 5190,
      "ungai": 5191,
      "iman": 5192,
      "encies": 5193,
      "Ġtenaga": 5194,
      "ĠSince": 5195,
      "Ġshoot": 5196,
      "iasa": 5197,
      "embangkan": 5198,
      "insip": 5199,
      "Ġstage": 5200,
      "Ġgoals": 5201,
      "Ùı": 5202,
      "Ġkasih": 5203,
      "Ġreve": 5204,
      "Ġschools": 5205,
      "antly": 5206,
      "ĠGreen": 5207,
      "Ġmoving": 5208,
      "itus": 5209,
      "Ġhadiah": 5210,
      "Ġsebarang": 5211,
      "dd": 5212,
      "ittee": 5213,
      "Ġbenefit": 5214,
      "Ġfrequ": 5215,
      "Ġparticularly": 5216,
      "Ġlakukan": 5217,
      "ĠAI": 5218,
      "Ġrules": 5219,
      "rian": 5220,
      "Ġfunction": 5221,
      "ously": 5222,
      "entara": 5223,
      "ĠÂ£": 5224,
      "Ġterbaru": 5225,
      "ahaman": 5226,
      "Ġawam": 5227,
      "Ġge": 5228,
      "ĠTexas": 5229,
      "Ġfederal": 5230,
      "Ġmachine": 5231,
      "Ġconv": 5232,
      "dom": 5233,
      "eign": 5234,
      "Ġkomputer": 5235,
      "term": 5236,
      "Ġsubs": 5237,
      "Ġmenyel": 5238,
      "ÙİÙ": 5239,
      "Ġmilitary": 5240,
      "Ġsegi": 5241,
      "Ġforce": 5242,
      "\",": 5243,
      "iber": 5244,
      "Ġtempoh": 5245,
      "ĠAccording": 5246,
      "ĠGood": 5247,
      "Ġinterested": 5248,
      "Ġturned": 5249,
      "ĠMad": 5250,
      "ĠOk": 5251,
      "Ġnote": 5252,
      "Ġku": 5253,
      "ĠDist": 5254,
      "unk": 5255,
      "ĠMak": 5256,
      "Ġkeseluruhan": 5257,
      "Ġmimpi": 5258,
      "Ġarah": 5259,
      "Ġcapital": 5260,
      "Ġdilihat": 5261,
      "Ġpoor": 5262,
      "isah": 5263,
      "ster": 5264,
      "Ġrob": 5265,
      "Ġbase": 5266,
      "Ġkesempatan": 5267,
      "ĠGold": 5268,
      "Ġspot": 5269,
      "EO": 5270,
      "orage": 5271,
      "aughter": 5272,
      "Ġpartner": 5273,
      "Ġpositif": 5274,
      "Ġsebagian": 5275,
      "Ġexcellent": 5276,
      "Ġfem": 5277,
      "urg": 5278,
      "Ġincreasing": 5279,
      "Ġzaman": 5280,
      "Ġreleased": 5281,
      "Ġlaporan": 5282,
      "Ġagen": 5283,
      "Ġmount": 5284,
      "change": 5285,
      "Ġberkembang": 5286,
      "ormat": 5287,
      "Ġpublished": 5288,
      "Ġger": 5289,
      "ĠDecember": 5290,
      "cast": 5291,
      "Ġselect": 5292,
      "Ġowners": 5293,
      "Ġbirth": 5294,
      "Ġmengand": 5295,
      "ĠKarena": 5296,
      "Ġactivity": 5297,
      "ĠWashington": 5298,
      "Ġheat": 5299,
      "orong": 5300,
      "Ġmenikmati": 5301,
      "Ġbey": 5302,
      "atever": 5303,
      "ĠOh": 5304,
      "Ġsana": 5305,
      "Ġeye": 5306,
      "ĠApa": 5307,
      "rote": 5308,
      "Ġperp": 5309,
      "ville": 5310,
      "iment": 5311,
      "Ph": 5312,
      "Ġcopy": 5313,
      "Ġmelaksanakan": 5314,
      "-time": 5315,
      "Ġchurch": 5316,
      "Ġtechni": 5317,
      "urb": 5318,
      "Ġmiddle": 5319,
      "Ġmodal": 5320,
      "Ġdemonstr": 5321,
      "Ġimpress": 5322,
      "Ġbeyond": 5323,
      "ĠLa": 5324,
      "tle": 5325,
      "ĠWork": 5326,
      "arden": 5327,
      "ĠSetiap": 5328,
      "ahas": 5329,
      "Ġsementara": 5330,
      "Ġphotos": 5331,
      "Ġbaby": 5332,
      "ĠCap": 5333,
      "Ġmeaning": 5334,
      "Ġcollege": 5335,
      "elesaikan": 5336,
      "PA": 5337,
      "Ġhappened": 5338,
      "Ġdemand": 5339,
      "BS": 5340,
      "eman": 5341,
      "ĠOther": 5342,
      "Ġpener": 5343,
      "reci": 5344,
      "Ġsurv": 5345,
      "ĠSun": 5346,
      "ĠOrang": 5347,
      "Ġmenurut": 5348,
      "Ġadvice": 5349,
      "08": 5350,
      "Ġakibat": 5351,
      "Ġapplications": 5352,
      "Ġnyata": 5353,
      "oday": 5354,
      "Ġdefinitely": 5355,
      "iba": 5356,
      "ager": 5357,
      "agaiman": 5358,
      "Ġdeveloped": 5359,
      "kanan": 5360,
      "Ġarriv": 5361,
      "ĠCollege": 5362,
      "overy": 5363,
      "ĠMuslim": 5364,
      "edding": 5365,
      "ancang": 5366,
      "ĠKom": 5367,
      ".D": 5368,
      "Ġmanfaat": 5369,
      "izes": 5370,
      "Ġ?": 5371,
      "Ġwarna": 5372,
      "ĠSim": 5373,
      "ĠTel": 5374,
      "BC": 5375,
      "ĠSM": 5376,
      "Ġregion": 5377,
      "Ġgaya": 5378,
      "Ġpattern": 5379,
      "Ġspent": 5380,
      "Ġfant": 5381,
      "ĠDevelop": 5382,
      ".B": 5383,
      "Ġlab": 5384,
      "Ġconsult": 5385,
      "Ġinit": 5386,
      "Ġsiap": 5387,
      "Ġbes": 5388,
      "ĠPaul": 5389,
      "alikan": 5390,
      "enue": 5391,
      "Ġtua": 5392,
      "-per": 5393,
      "Ġpremi": 5394,
      "Ġpanduan": 5395,
      "Ġregister": 5396,
      "indak": 5397,
      "efully": 5398,
      "Ġdoll": 5399,
      "Ġmut": 5400,
      "Ġlelaki": 5401,
      "aih": 5402,
      "Ġbetul": 5403,
      "but": 5404,
      "Ġlooked": 5405,
      "Ġbalik": 5406,
      "Ġacqu": 5407,
      "Ġincreased": 5408,
      "ycle": 5409,
      "Ġcert": 5410,
      "ĠGreat": 5411,
      "Ġpenelitian": 5412,
      "He": 5413,
      "ukti": 5414,
      "echan": 5415,
      "ĠKed": 5416,
      "kenal": 5417,
      "Ġtraff": 5418,
      "Ġpegawai": 5419,
      "uli": 5420,
      "Ġguide": 5421,
      "Ġimmediately": 5422,
      "Ġdriving": 5423,
      "angani": 5424,
      "Ġbeliev": 5425,
      "Ġvisual": 5426,
      "ĠSalah": 5427,
      "ĠMicro": 5428,
      "Ġbasis": 5429,
      "Ġideal": 5430,
      "Ġaktif": 5431,
      "Ġpurpose": 5432,
      "aksa": 5433,
      "Ġsort": 5434,
      "eperti": 5435,
      "ĠVir": 5436,
      "oyal": 5437,
      "erved": 5438,
      "iksaan": 5439,
      "Ġmedi": 5440,
      "Ġprinc": 5441,
      "kait": 5442,
      "adan": 5443,
      "Ġplus": 5444,
      "Ġmembangun": 5445,
      "icip": 5446,
      "Ġapprov": 5447,
      "Ġdamage": 5448,
      "ett": 5449,
      "Ġearlier": 5450,
      "www": 5451,
      "Ġpopuler": 5452,
      "ĠJabatan": 5453,
      "ancangan": 5454,
      "ography": 5455,
      "Ġataupun": 5456,
      "Ġketer": 5457,
      "porate": 5458,
      "Ġir": 5459,
      "Ġaspect": 5460,
      "Ġfinally": 5461,
      "Ġshar": 5462,
      "Ġsetting": 5463,
      "Ġdetermin": 5464,
      "Ġmonitor": 5465,
      "Ġincome": 5466,
      "Ġnearly": 5467,
      "Ġopin": 5468,
      "Ġbebas": 5469,
      "ĠBook": 5470,
      "ĠEduc": 5471,
      "Ġpengurusan": 5472,
      "Ġaffect": 5473,
      "ĠBay": 5474,
      "39": 5475,
      "Ġpicture": 5476,
      "Ġfol": 5477,
      "ucing": 5478,
      "ĠFlor": 5479,
      "Ġfinish": 5480,
      "Ġcertainly": 5481,
      "Ġallowed": 5482,
      "Ġstrategy": 5483,
      "Ġmemenangkan": 5484,
      "ela": 5485,
      "Ġrates": 5486,
      "ĠTapi": 5487,
      "Ġstar": 5488,
      "Ġappropri": 5489,
      "Ġuses": 5490,
      "Ġthous": 5491,
      "Ġfans": 5492,
      "amar": 5493,
      "Ġachiev": 5494,
      "Ġmeningkat": 5495,
      "Ġproced": 5496,
      "Ġgag": 5497,
      "Ġoffering": 5498,
      "Ġsikap": 5499,
      "ĠFebruary": 5500,
      "ault": 5501,
      "Ġcolle": 5502,
      "Ġminggu": 5503,
      "ĠClick": 5504,
      "ulf": 5505,
      "Ġdont": 5506,
      "istry": 5507,
      "194": 5508,
      "Ġjump": 5509,
      "rain": 5510,
      "kanak": 5511,
      "Ġfamilies": 5512,
      "Ġvehicle": 5513,
      "okus": 5514,
      "Ġluas": 5515,
      "Ġkira": 5516,
      "Ġkemungkinan": 5517,
      "Ġcommercial": 5518,
      "Ġafford": 5519,
      "Ġkol": 5520,
      "ĠRet": 5521,
      "Ġdijalankan": 5522,
      "Ġkomunikasi": 5523,
      "Ġbeginning": 5524,
      "rat": 5525,
      "Ġreports": 5526,
      "Ġserious": 5527,
      "Ġfuel": 5528,
      "ĠData": 5529,
      "Ġsepanjang": 5530,
      "Ġcompared": 5531,
      "Ġakses": 5532,
      "Ġaccur": 5533,
      "OP": 5534,
      "rastr": 5535,
      "ĠSystem": 5536,
      "Ġbapa": 5537,
      "urangan": 5538,
      "ajuan": 5539,
      "ques": 5540,
      "ukai": 5541,
      "ĠMuh": 5542,
      "eksi": 5543,
      "ĠAndroid": 5544,
      "Ġload": 5545,
      "?âĢĿ": 5546,
      "Ġadjust": 5547,
      "ĠJun": 5548,
      "ĠAlthough": 5549,
      "gest": 5550,
      "Ġtick": 5551,
      "Ġdaftar": 5552,
      "Ġsatisf": 5553,
      "Ġparti": 5554,
      "ÙĲ": 5555,
      "gen": 5556,
      "ago": 5557,
      "Ġperempuan": 5558,
      "aker": 5559,
      "ampil": 5560,
      "inding": 5561,
      "ectively": 5562,
      "vel": 5563,
      "Ġdivers": 5564,
      "Ġrock": 5565,
      "Ġfeet": 5566,
      "Ġcloth": 5567,
      "Ġasas": 5568,
      "jah": 5569,
      "onton": 5570,
      "Ġanc": 5571,
      "rim": 5572,
      "unggu": 5573,
      "Ġdilaksanakan": 5574,
      "awasan": 5575,
      "Ġkehilangan": 5576,
      "Ġterkenal": 5577,
      "Ġspread": 5578,
      "Ġpunya": 5579,
      "Ø§ÙĦ": 5580,
      "Ġsakit": 5581,
      "Ġnumbers": 5582,
      "ĠWed": 5583,
      "udit": 5584,
      "Ġperanan": 5585,
      "soft": 5586,
      "Ġteams": 5587,
      "ĠTop": 5588,
      "ĠNe": 5589,
      "Ġcandid": 5590,
      "ĠJames": 5591,
      "enti": 5592,
      "undred": 5593,
      "ĠGovern": 5594,
      "Ġdedic": 5595,
      "Ġpowerful": 5596,
      "65": 5597,
      "uesday": 5598,
      "ffee": 5599,
      "Ġhttp": 5600,
      "Ġbill": 5601,
      "ĠRich": 5602,
      "ĠSpec": 5603,
      "ursday": 5604,
      "Ġdarah": 5605,
      "Ġwalaupun": 5606,
      "Ġnya": 5607,
      "Ġlingkungan": 5608,
      "egara": 5609,
      "ujudkan": 5610,
      "Ġgolongan": 5611,
      "Ġtitle": 5612,
      "Ġsale": 5613,
      "ronic": 5614,
      "Ġraya": 5615,
      "ilaian": 5616,
      "Ġstrugg": 5617,
      "Ġassociated": 5618,
      "name": 5619,
      "sequ": 5620,
      "Ġsav": 5621,
      "ĠSemua": 5622,
      "impinan": 5623,
      "antau": 5624,
      "ĠId": 5625,
      "arapkan": 5626,
      "ĠBecause": 5627,
      "Ġcateg": 5628,
      "Ġreasons": 5629,
      "-j": 5630,
      "ado": 5631,
      "Ġannounced": 5632,
      "ĠGre": 5633,
      "Ġmotiv": 5634,
      "ohol": 5635,
      "Ġterdiri": 5636,
      "Ġcommit": 5637,
      "ewa": 5638,
      "ĠJangan": 5639,
      "ĠPublic": 5640,
      "Ġdress": 5641,
      "Ġefforts": 5642,
      "akala": 5643,
      "Ġalb": 5644,
      "care": 5645,
      "Ġkeg": 5646,
      "Ġimages": 5647,
      "Ġdouble": 5648,
      "Ġbasic": 5649,
      "Ġchanged": 5650,
      "ĠDesign": 5651,
      "Ġcomments": 5652,
      "uted": 5653,
      "Ġselain": 5654,
      "wise": 5655,
      "Ġnaik": 5656,
      "ĠWhite": 5657,
      "alog": 5658,
      "Ġserve": 5659,
      "ujuk": 5660,
      "la": 5661,
      "Ġshot": 5662,
      "cel": 5663,
      "Ġhus": 5664,
      "oms": 5665,
      "Ġpayment": 5666,
      "Ap": 5667,
      "77": 5668,
      "ĠYes": 5669,
      "impan": 5670,
      "Ġtengah": 5671,
      "Ġdevices": 5672,
      "Ġmembutuhkan": 5673,
      "Ġadvert": 5674,
      "ss": 5675,
      "-old": 5676,
      "apor": 5677,
      "ipp": 5678,
      "Ġkelompok": 5679,
      "Ġist": 5680,
      "ĠID": 5681,
      "ebat": 5682,
      "ĠServices": 5683,
      "Ġstudies": 5684,
      "acher": 5685,
      "orks": 5686,
      "ĠSee": 5687,
      "Ġkand": 5688,
      "Ġkondisi": 5689,
      "orrow": 5690,
      "antar": 5691,
      "Ġdiambil": 5692,
      "ĠTetapi": 5693,
      "itchen": 5694,
      "ÙĴ": 5695,
      "ĠBeberapa": 5696,
      "baik": 5697,
      "Ġmembayar": 5698,
      "imbangkan": 5699,
      "ĠPulau": 5700,
      "Ġscient": 5701,
      "Ġperaturan": 5702,
      "Ġpent": 5703,
      "Ġlaws": 5704,
      "Ġeconomy": 5705,
      "faatkan": 5706,
      "ico": 5707,
      "Ġord": 5708,
      "Ġadm": 5709,
      "Ġps": 5710,
      "Ġcompon": 5711,
      "enn": 5712,
      "istics": 5713,
      "Ġwrote": 5714,
      "urik": 5715,
      "ĠSej": 5716,
      "kaun": 5717,
      "ĠRepublic": 5718,
      "abar": 5719,
      "Ġnotice": 5720,
      "arant": 5721,
      "Ġdisease": 5722,
      "atuan": 5723,
      "ibrary": 5724,
      "Ġdisebabkan": 5725,
      "inger": 5726,
      "Ġasing": 5727,
      "eza": 5728,
      "ĠCong": 5729,
      "order": 5730,
      "Ġearn": 5731,
      "Ġoffered": 5732,
      "kuasa": 5733,
      "ĠContoh": 5734,
      "ias": 5735,
      "Ġahead": 5736,
      "Ġsustain": 5737,
      "cl": 5738,
      "Ġcheap": 5739,
      "guna": 5740,
      "ultan": 5741,
      "akar": 5742,
      "erusnya": 5743,
      "Ġbrain": 5744,
      "05": 5745,
      "ukur": 5746,
      "time": 5747,
      "Ġberat": 5748,
      "Ġeasier": 5749,
      "Ġminimum": 5750,
      "Ġoperasi": 5751,
      "150": 5752,
      "Ġtradisional": 5753,
      "Ġwid": 5754,
      "Ġevalu": 5755,
      "Ġconstruction": 5756,
      "Ġfungsi": 5757,
      "ĠAC": 5758,
      "Ġtruly": 5759,
      "Ġmembuka": 5760,
      "abung": 5761,
      "ĠMarket": 5762,
      "ĠWindows": 5763,
      "ocal": 5764,
      "Ġburn": 5765,
      "Ġlands": 5766,
      "Ġder": 5767,
      "Ġ<": 5768,
      "Ġul": 5769,
      "Ġrap": 5770,
      "-T": 5771,
      "Ġactive": 5772,
      "rant": 5773,
      "ĠTrump": 5774,
      "-F": 5775,
      "anian": 5776,
      "ĠLast": 5777,
      "Ġarm": 5778,
      "ukuran": 5779,
      "Ġresponsible": 5780,
      "Ġsiapa": 5781,
      "ĠIT": 5782,
      "ĠHome": 5783,
      "Ġseks": 5784,
      "uny": 5785,
      "Ġjourney": 5786,
      "UK": 5787,
      "Ġscr": 5788,
      "Ġchallenges": 5789,
      "ĠChristmas": 5790,
      "ym": 5791,
      "nesday": 5792,
      "Ġcancer": 5793,
      "isk": 5794,
      "Ġkanak": 5795,
      "ualan": 5796,
      "like": 5797,
      "Ġjobs": 5798,
      "ĠCanada": 5799,
      "Ġaward": 5800,
      "Ġbern": 5801,
      "Ġmeja": 5802,
      "Ġterg": 5803,
      "Ġabsol": 5804,
      "Ġupdate": 5805,
      "ĠSum": 5806,
      "ĠAP": 5807,
      "ĠLeg": 5808,
      "Ġcars": 5809,
      "Is": 5810,
      "Ġclin": 5811,
      "Ġdimana": 5812,
      "iny": 5813,
      "Ġcritical": 5814,
      "ongk": 5815,
      "Ġvoice": 5816,
      "Ġrib": 5817,
      "Ġwarm": 5818,
      "lished": 5819,
      "Ġkaki": 5820,
      "ĠGuru": 5821,
      "Ġcas": 5822,
      "Ġalasan": 5823,
      "uing": 5824,
      "Ġkor": 5825,
      "Ġdiam": 5826,
      "Ġrent": 5827,
      "ĠKetua": 5828,
      "Ġshown": 5829,
      "Ġalle": 5830,
      "ship": 5831,
      "ĠDef": 5832,
      "Ġkualitas": 5833,
      "Ġdriver": 5834,
      "49": 5835,
      "Ġpagi": 5836,
      "ĠFound": 5837,
      "Ġappreci": 5838,
      "Ġtid": 5839,
      "Ġsituasi": 5840,
      "ĠBanyak": 5841,
      "Ġtiada": 5842,
      "Ġphoto": 5843,
      "eat": 5844,
      "ahagian": 5845,
      "And": 5846,
      "Ġketiga": 5847,
      "ĠEach": 5848,
      "ĠSom": 5849,
      "Ġgrand": 5850,
      "Ġscience": 5851,
      "imbol": 5852,
      "09": 5853,
      "ĠItu": 5854,
      "Ġattract": 5855,
      "Ġbod": 5856,
      "abis": 5857,
      "Ġcouldn": 5858,
      "aled": 5859,
      "Ġtraffic": 5860,
      "Ġburuk": 5861,
      "Ġowner": 5862,
      "awaran": 5863,
      "-kanak": 5864,
      "ugar": 5865,
      "Ġaj": 5866,
      "DA": 5867,
      "down": 5868,
      "ĠAdv": 5869,
      "Ġlines": 5870,
      "ihkan": 5871,
      "ĠCheck": 5872,
      "TM": 5873,
      "Ġelectric": 5874,
      "erhana": 5875,
      "Ġdirector": 5876,
      "Ġgone": 5877,
      "Ġkekuatan": 5878,
      "ĠIP": 5879,
      "Ġpendekatan": 5880,
      "Ġkemudahan": 5881,
      "Ġkeselamatan": 5882,
      "ĠHall": 5883,
      "ansi": 5884,
      "Ġwhose": 5885,
      "ĠSabah": 5886,
      "Ġtrain": 5887,
      "Ġestablish": 5888,
      "umpur": 5889,
      "ĠAL": 5890,
      "ĠSpr": 5891,
      "Ġdekat": 5892,
      "ĠCompany": 5893,
      "Ġalthough": 5894,
      "ursus": 5895,
      "Ġmodels": 5896,
      "Ġweekend": 5897,
      "Ġinfo": 5898,
      "Ġutil": 5899,
      "aringan": 5900,
      "Ġcontain": 5901,
      "Ġmaster": 5902,
      "ĠUSA": 5903,
      "Ġmaintain": 5904,
      "Ġpercaya": 5905,
      "ĠTek": 5906,
      "Ġpeserta": 5907,
      "Ġsteps": 5908,
      "acity": 5909,
      "ette": 5910,
      "Ġregarding": 5911,
      "NA": 5912,
      "Ġsand": 5913,
      "ĠMichael": 5914,
      "Ġreput": 5915,
      "Ġobject": 5916,
      "cul": 5917,
      "cape": 5918,
      "Ġsyarat": 5919,
      "Ġguess": 5920,
      "Ġpint": 5921,
      "Ġluck": 5922,
      "Ġnor": 5923,
      "urikulum": 5924,
      "Ġcold": 5925,
      "Ġcollabor": 5926,
      "Ġkhususnya": 5927,
      "urid": 5928,
      "Ġmenu": 5929,
      "Ġras": 5930,
      "ĠDisc": 5931,
      "EP": 5932,
      "field": 5933,
      "Ġclient": 5934,
      "iant": 5935,
      "ĠKita": 5936,
      "Ġagree": 5937,
      "Ġwilayah": 5938,
      "Ġprojek": 5939,
      "osa": 5940,
      "ĠEuropean": 5941,
      "ĠTuesday": 5942,
      "Ġberhasil": 5943,
      "ĠAssociation": 5944,
      "ementara": 5945,
      "Ġdesp": 5946,
      "andingkan": 5947,
      "An": 5948,
      "Ġdikenal": 5949,
      "antikan": 5950,
      "ounds": 5951,
      "gin": 5952,
      "rench": 5953,
      "Ġelek": 5954,
      "Ġsurround": 5955,
      "Ġfactors": 5956,
      "ĠThursday": 5957,
      "Ġkredit": 5958,
      "Ġsederhana": 5959,
      "ĠDa": 5960,
      "wide": 5961,
      "ading": 5962,
      "emar": 5963,
      "anta": 5964,
      "So": 5965,
      "Ġpasaran": 5966,
      "ĠPlan": 5967,
      "Ġchat": 5968,
      "Ġforeign": 5969,
      "Ġaren": 5970,
      "LE": 5971,
      "apak": 5972,
      "ENT": 5973,
      "Ġdegree": 5974,
      "Ġprotection": 5975,
      "Ġpeningkatan": 5976,
      "Ġhundred": 5977,
      "Ġmenulis": 5978,
      "Ġsociety": 5979,
      "aly": 5980,
      "Ġacadem": 5981,
      "Ġkeamanan": 5982,
      "Ġmurah": 5983,
      "ĠUse": 5984,
      "Ġcapt": 5985,
      "Ġmeasure": 5986,
      "Ġexisting": 5987,
      "eah": 5988,
      "TA": 5989,
      "Ġmenghadapi": 5990,
      "onn": 5991,
      "Ġkeuangan": 5992,
      "ĠMo": 5993,
      "osen": 5994,
      "Ġvs": 5995,
      "Ġbilik": 5996,
      "400": 5997,
      "ĠRob": 5998,
      "Ġgirls": 5999,
      "ĠSil": 6000,
      "arak": 6001,
      "Ġlimit": 6002,
      "ament": 6003,
      "arab": 6004,
      "Ġgreater": 6005,
      "Ġconsum": 6006,
      "agon": 6007,
      "aliknya": 6008,
      "olak": 6009,
      "Ġpertandingan": 6010,
      "itude": 6011,
      "Ġpelaksanaan": 6012,
      "Ġprop": 6013,
      "ĠLear": 6014,
      "46": 6015,
      "iers": 6016,
      "angsaan": 6017,
      "Ġglass": 6018,
      "Ġchallenge": 6019,
      "rig": 6020,
      "ĠSekolah": 6021,
      "Ġkereta": 6022,
      "Ġseven": 6023,
      "Ġprib": 6024,
      "ĠUm": 6025,
      "Ġmoved": 6026,
      "Ġmembentuk": 6027,
      "Ġjackpot": 6028,
      "Ġmill": 6029,
      "Ġproduce": 6030,
      "Ġberc": 6031,
      "hh": 6032,
      "Ġsolid": 6033,
      "ĠJesus": 6034,
      "xy": 6035,
      "ingat": 6036,
      "Ġsepenuh": 6037,
      "Ġtransform": 6038,
      "inated": 6039,
      "Ġmethods": 6040,
      "ungguh": 6041,
      "elajari": 6042,
      "agam": 6043,
      "No": 6044,
      "ĠSte": 6045,
      "ellig": 6046,
      "Ġguid": 6047,
      "Ġchem": 6048,
      "47": 6049,
      "ĠPeople": 6050,
      "ĠPower": 6051,
      "ĠLike": 6052,
      "ustr": 6053,
      "Ġobv": 6054,
      "Ġrequires": 6055,
      "olic": 6056,
      "Ġcamera": 6057,
      "okong": 6058,
      "Ġhor": 6059,
      "Ġadop": 6060,
      "Ġtruth": 6061,
      "ĠUM": 6062,
      "Ġiniti": 6063,
      "ancing": 6064,
      "bi": 6065,
      "Ġfan": 6066,
      "Ġsebag": 6067,
      "ampaikan": 6068,
      "ammad": 6069,
      "Ġdelivery": 6070,
      "ambut": 6071,
      "Ġkot": 6072,
      "how": 6073,
      "Ġsurface": 6074,
      "ches": 6075,
      "Ġsektor": 6076,
      "Ġcivil": 6077,
      "ĠCouncil": 6078,
      "ĠRef": 6079,
      "Ġexperiences": 6080,
      "mainkan": 6081,
      "Ġquarter": 6082,
      "Ġlokasi": 6083,
      "asiswa": 6084,
      "ĠDuring": 6085,
      "ĠMake": 6086,
      "gunaan": 6087,
      "Ġwarga": 6088,
      "Ġlargest": 6089,
      "ĠLook": 6090,
      "Ġoptim": 6091,
      "ĠMohd": 6092,
      "Ġputaran": 6093,
      "Ġinfrastr": 6094,
      "Ġcoc": 6095,
      "ifying": 6096,
      "Ġeight": 6097,
      "Ġ)": 6098,
      "NO": 6099,
      "Ġjangka": 6100,
      "Ġseles": 6101,
      "CA": 6102,
      "abi": 6103,
      "ĠSyar": 6104,
      "ĠMart": 6105,
      "Ġpopulation": 6106,
      "Ġworkers": 6107,
      "rief": 6108,
      "Ġmemperoleh": 6109,
      "Ġconnection": 6110,
      "Ġstorage": 6111,
      "pert": 6112,
      "Ġmengatasi": 6113,
      "Ġprimary": 6114,
      "Ġmechan": 6115,
      "estival": 6116,
      "osed": 6117,
      "ataan": 6118,
      "Ġbottom": 6119,
      "icara": 6120,
      "amil": 6121,
      "Ġdana": 6122,
      "example": 6123,
      "ket": 6124,
      "Ġloved": 6125,
      "ĠAhm": 6126,
      "Ġditerima": 6127,
      "ĠWednesday": 6128,
      "Ġpsych": 6129,
      "Ġvideos": 6130,
      "Ġadvantage": 6131,
      "akarta": 6132,
      "oi": 6133,
      "Ġfashion": 6134,
      "ĠStar": 6135,
      "Ġappoint": 6136,
      "Ġsamping": 6137,
      ".g": 6138,
      "Ġinstruct": 6139,
      "agaimanapun": 6140,
      "IF": 6141,
      "Ġprofit": 6142,
      "ady": 6143,
      "Ġsulit": 6144,
      "ĠBoard": 6145,
      "ĠÙ": 6146,
      "Ġknows": 6147,
      "gerak": 6148,
      "bl": 6149,
      "kah": 6150,
      "itect": 6151,
      "AW": 6152,
      "Ġguarant": 6153,
      "Ġtempatan": 6154,
      "ĠTun": 6155,
      "ĠHel": 6156,
      "Ġhelping": 6157,
      "07": 6158,
      "TP": 6159,
      "Ġditetapkan": 6160,
      "ĠBas": 6161,
      "Ġmanage": 6162,
      "Ġmusim": 6163,
      "Ġfab": 6164,
      "ĠToday": 6165,
      "eka": 6166,
      "actions": 6167,
      "Ġlaptop": 6168,
      "Ġberbeza": 6169,
      "Ġexperienced": 6170,
      "Ġheavy": 6171,
      "Ġwww": 6172,
      "Ġdy": 6173,
      "Ġmenyer": 6174,
      "Ġaudience": 6175,
      "Ġgenerally": 6176,
      "ĠRober": 6177,
      "oma": 6178,
      "Ġslight": 6179,
      "ĠPay": 6180,
      "Ġdoctor": 6181,
      "Ġhusband": 6182,
      "Ġthank": 6183,
      "Ġmist": 6184,
      "Ġmula": 6185,
      "ĠOF": 6186,
      "ĠDownload": 6187,
      "Ġberubah": 6188,
      "ahaya": 6189,
      "ĠAnother": 6190,
      "ht": 6191,
      "Ġdiet": 6192,
      "Ġprote": 6193,
      "Ġlots": 6194,
      "Ġsebagainya": 6195,
      "Ġactual": 6196,
      "ĠOffice": 6197,
      "Ġinternal": 6198,
      "Ġgig": 6199,
      "Ġpatient": 6200,
      "Ġfollowed": 6201,
      "itness": 6202,
      "Ġweather": 6203,
      "iciency": 6204,
      "Ġmag": 6205,
      "âĢĿ,": 6206,
      "ĠAw": 6207,
      "unga": 6208,
      "ĠWal": 6209,
      "angi": 6210,
      "Ġaturan": 6211,
      "ype": 6212,
      "Ġmemasuk": 6213,
      "Ġpool": 6214,
      "Ġbalance": 6215,
      "Ġditawarkan": 6216,
      "Ġmahu": 6217,
      "Sel": 6218,
      "Ġwild": 6219,
      "lay": 6220,
      "uty": 6221,
      "Ġswitch": 6222,
      "Ġlength": 6223,
      "angnya": 6224,
      "Ġpandangan": 6225,
      "ete": 6226,
      "Ġseeing": 6227,
      "Ġbreat": 6228,
      "Ġreality": 6229,
      "udukan": 6230,
      "Ġera": 6231,
      "iksi": 6232,
      "tenance": 6233,
      "Ġju": 6234,
      "Ġdisediakan": 6235,
      "Ġdimainkan": 6236,
      "idi": 6237,
      "Ġorg": 6238,
      "Ġsentiasa": 6239,
      "Ġcommunication": 6240,
      "ĠBal": 6241,
      "ĠReview": 6242,
      "Ġbackground": 6243,
      "iksa": 6244,
      "Ġmetode": 6245,
      "owl": 6246,
      "Ġdecl": 6247,
      "Ġkid": 6248,
      "SA": 6249,
      "Ġlihat": 6250,
      "Ġdied": 6251,
      "ĠGeneral": 6252,
      "olehkan": 6253,
      "Ġleader": 6254,
      "estasi": 6255,
      "leks": 6256,
      "ĠGame": 6257,
      "Ġattend": 6258,
      "orary": 6259,
      "Ġexpensive": 6260,
      "@example": 6261,
      "Ġreli": 6262,
      "Ġachieve": 6263,
      "Ġmerek": 6264,
      "Ġproperti": 6265,
      "anging": 6266,
      "ĠChristian": 6267,
      "Ġwonderful": 6268,
      "Ġstick": 6269,
      "ĠTuan": 6270,
      "ĠJep": 6271,
      "Ġtroub": 6272,
      "Ġpages": 6273,
      "ahirkan": 6274,
      "<br": 6275,
      "ĠPan": 6276,
      "Ġterlihat": 6277,
      "ĠThanks": 6278,
      "Ġkesalahan": 6279,
      "ĠLumpur": 6280,
      "Ġcomfortable": 6281,
      "06": 6282,
      "bs": 6283,
      "ĠBig": 6284,
      "Ġkepala": 6285,
      "Ġnovel": 6286,
      "ĠApp": 6287,
      "Ġmobil": 6288,
      "Ġtend": 6289,
      "ĠMary": 6290,
      "Ġmengubah": 6291,
      "Ġkewangan": 6292,
      "-pro": 6293,
      "ĠOrgan": 6294,
      "Ġbeli": 6295,
      "Ġdie": 6296,
      "Ġfigure": 6297,
      "Ġappropriate": 6298,
      "Ġefektif": 6299,
      "Ġsurat": 6300,
      "Ġbath": 6301,
      "ĠAkta": 6302,
      "Ġobjek": 6303,
      "Ġhighest": 6304,
      "Al": 6305,
      "Ġhelped": 6306,
      "ato": 6307,
      "ĠTwitter": 6308,
      "Ġpember": 6309,
      "win": 6310,
      "Ġchann": 6311,
      "Ġreviews": 6312,
      "ĠKementerian": 6313,
      "Ġmempengaruhi": 6314,
      "ĠAnn": 6315,
      "ĠDewan": 6316,
      "eluaran": 6317,
      "Ġdikatakan": 6318,
      "hl": 6319,
      "Ġserved": 6320,
      "ĠMiss": 6321,
      "Ġvictim": 6322,
      "ĠVol": 6323,
      "Ġfly": 6324,
      "Ġlarger": 6325,
      "Ġboy": 6326,
      "Ġ...Ċ": 6327,
      ".T": 6328,
      "ubung": 6329,
      "Ġcitiz": 6330,
      "Ġnamed": 6331,
      "ĠIC": 6332,
      "Ġterbesar": 6333,
      "Ġfaith": 6334,
      "ĠCina": 6335,
      "ĠJour": 6336,
      "ky": 6337,
      "ĠRock": 6338,
      "Ġopening": 6339,
      "Ġresmi": 6340,
      "imbangan": 6341,
      "Ġletter": 6342,
      "42": 6343,
      "encing": 6344,
      "Ġestablished": 6345,
      "Per": 6346,
      "Ġsubm": 6347,
      "Ġmir": 6348,
      "ining": 6349,
      "urus": 6350,
      "Ġeth": 6351,
      "Ġsenior": 6352,
      "Ġolder": 6353,
      "ulasi": 6354,
      "Ġperasaan": 6355,
      "ĠTime": 6356,
      "Ġbiggest": 6357,
      ");": 6358,
      "Ġspes": 6359,
      "Ġlanjut": 6360,
      "ĠKore": 6361,
      "Ġdesk": 6362,
      "ĠManagement": 6363,
      "Ġtelev": 6364,
      "Ġloan": 6365,
      "osh": 6366,
      "Ġexercise": 6367,
      "Ġborn": 6368,
      "Ġfear": 6369,
      "place": 6370,
      "Ġperdagangan": 6371,
      "Ġnumer": 6372,
      "Ġstation": 6373,
      "odes": 6374,
      "Ã¢": 6375,
      "anjian": 6376,
      "Ġstandards": 6377,
      "Ġannual": 6378,
      "Ġdirinya": 6379,
      "OD": 6380,
      "ĠPress": 6381,
      "Ġfinding": 6382,
      "ĠSep": 6383,
      "aa": 6384,
      "anyaan": 6385,
      "operasi": 6386,
      "uler": 6387,
      "house": 6388,
      "ella": 6389,
      "-D": 6390,
      "Ġperhaps": 6391,
      "ĠEducation": 6392,
      "Ġcast": 6393,
      "-term": 6394,
      "Ġwis": 6395,
      "ĠClub": 6396,
      "Ġlose": 6397,
      "Ġsuara": 6398,
      "mark": 6399,
      "asc": 6400,
      "Ġkrit": 6401,
      "fit": 6402,
      "ĠInf": 6403,
      "atively": 6404,
      "Ġrakan": 6405,
      "Ġkept": 6406,
      "Ġstructure": 6407,
      "Ġmajority": 6408,
      "agram": 6409,
      "inda": 6410,
      "Ġberkual": 6411,
      "Ġsweet": 6412,
      "ĠPerd": 6413,
      "ĠChurch": 6414,
      "Ġkesihatan": 6415,
      "Ġmaint": 6416,
      "Ġremains": 6417,
      "ario": 6418,
      "ĠSmith": 6419,
      "Ġkeras": 6420,
      "Ġmovement": 6421,
      "Ġorganizations": 6422,
      "Ġjasa": 6423,
      "Ġagak": 6424,
      "ĠTuhan": 6425,
      "Ġbertaruh": 6426,
      "olar": 6427,
      "Ġprakt": 6428,
      "Ġmemer": 6429,
      "oti": 6430,
      "Ġturun": 6431,
      "aduan": 6432,
      "Ġkebanyakan": 6433,
      "Ġshared": 6434,
      "Ġng": 6435,
      "ested": 6436,
      "Men": 6437,
      "Ġtulis": 6438,
      "icial": 6439,
      "Ġpassed": 6440,
      "rak": 6441,
      "Ġdar": 6442,
      "ayanan": 6443,
      "Ġreb": 6444,
      "even": 6445,
      "efore": 6446,
      "Ġsemangat": 6447,
      "ait": 6448,
      "rowd": 6449,
      "41": 6450,
      "Ġlegisl": 6451,
      "Ġwhatever": 6452,
      "Ġgaris": 6453,
      "ideo": 6454,
      "Ġextremely": 6455,
      "Ġterc": 6456,
      "Ġthanks": 6457,
      "ĠVegas": 6458,
      "ĠReal": 6459,
      "inate": 6460,
      "eds": 6461,
      "Ġremove": 6462,
      "Ġsecure": 6463,
      "Ġmati": 6464,
      "Ġlearned": 6465,
      "Ġspr": 6466,
      "Ġoperations": 6467,
      "overs": 6468,
      "body": 6469,
      "Ġconven": 6470,
      "zz": 6471,
      "Ġdiperoleh": 6472,
      "icing": 6473,
      "Ġfis": 6474,
      "amen": 6475,
      "Ġpray": 6476,
      "Ġkill": 6477,
      "och": 6478,
      "Ġdiagn": 6479,
      "ĠEc": 6480,
      "ambar": 6481,
      "enses": 6482,
      "Ġoppos": 6483,
      "Ġciri": 6484,
      "02": 6485,
      "Ġwouldn": 6486,
      "Ġbayi": 6487,
      "ĠTur": 6488,
      "ĠFore": 6489,
      "acters": 6490,
      "Ġpribadi": 6491,
      "Ġpractices": 6492,
      "Ġkhas": 6493,
      "lig": 6494,
      "Ġformat": 6495,
      "Ġoutd": 6496,
      "Ġcontinued": 6497,
      "coming": 6498,
      "Ġcatch": 6499,
      "Ġcompreh": 6500,
      "Ġkenyataan": 6501,
      "Ġflex": 6502,
      "ĠCle": 6503,
      "Ġtut": 6504,
      "uster": 6505,
      "ersey": 6506,
      "Ġ\\": 6507,
      "Ġhomes": 6508,
      "ĠInstitute": 6509,
      "Ġsepenuhnya": 6510,
      "Ġrac": 6511,
      "Ġvolunt": 6512,
      "Ġhaven": 6513,
      "ĠTheir": 6514,
      "bit": 6515,
      "Ġdur": 6516,
      "ocol": 6517,
      "kenalkan": 6518,
      "Ġmentioned": 6519,
      "Ġauth": 6520,
      "iptakan": 6521,
      "entially": 6522,
      "coin": 6523,
      "Ġtom": 6524,
      "Ġterh": 6525,
      "Ġparties": 6526,
      "Ġgift": 6527,
      "ĠSi": 6528,
      "ĠLife": 6529,
      "udden": 6530,
      "ampions": 6531,
      "Ġton": 6532,
      "Ġtherap": 6533,
      "Ġgain": 6534,
      "Ġhappens": 6535,
      "Ġdisapp": 6536,
      "eum": 6537,
      "ĠGen": 6538,
      "Ġcards": 6539,
      "ĠSuper": 6540,
      "Ġtanda": 6541,
      "ĠAbout": 6542,
      "yam": 6543,
      "ĠWhether": 6544,
      "ĠClass": 6545,
      "Ġuseful": 6546,
      "ĠWho": 6547,
      "Ġoccur": 6548,
      "Ġmission": 6549,
      "illa": 6550,
      "ĠLord": 6551,
      "Ġserver": 6552,
      "Ġpria": 6553,
      "Ġwaiting": 6554,
      "Ġobat": 6555,
      "ĠØ": 6556,
      "BA": 6557,
      "Ġdemi": 6558,
      "ĠThank": 6559,
      "Ġscene": 6560,
      "Ġtransl": 6561,
      "Ġcommunities": 6562,
      "ĠSecara": 6563,
      "anjutnya": 6564,
      "Ġalbum": 6565,
      "yen": 6566,
      "box": 6567,
      "ĠMot": 6568,
      "RA": 6569,
      "Ġterkait": 6570,
      "yer": 6571,
      "Ġtherefore": 6572,
      "Ġresist": 6573,
      "Ġsubsc": 6574,
      "Ġcalls": 6575,
      "ĠDig": 6576,
      "lor": 6577,
      "Ġminyak": 6578,
      "ĠProfess": 6579,
      "Ġcounter": 6580,
      "Ġperis": 6581,
      "iburan": 6582,
      "avig": 6583,
      "Ġcoffee": 6584,
      "azon": 6585,
      "uasai": 6586,
      "edom": 6587,
      "Ġbrows": 6588,
      "ĠAku": 6589,
      "Ġanaly": 6590,
      "adikan": 6591,
      "Ġmanager": 6592,
      "Ġign": 6593,
      "pas": 6594,
      "ĠDar": 6595,
      "Ġpropos": 6596,
      "Ġberusaha": 6597,
      "Ġpal": 6598,
      "Ġfish": 6599,
      "ĠMedia": 6600,
      "ĠSeri": 6601,
      "ĠLou": 6602,
      "ĠUl": 6603,
      "hips": 6604,
      "Ġdgn": 6605,
      "ĠWater": 6606,
      "Ġbought": 6607,
      "Ġretail": 6608,
      "ukaan": 6609,
      "Ġepis": 6610,
      "ĠCre": 6611,
      "Ġberita": 6612,
      "-R": 6613,
      "ĠVis": 6614,
      "lands": 6615,
      ".K": 6616,
      "ĠOper": 6617,
      "apter": 6618,
      "ĠBo": 6619,
      "Ġmenyelesaikan": 6620,
      "ĠSistem": 6621,
      "Ġrelevant": 6622,
      "unately": 6623,
      "ĠObama": 6624,
      "Ġpair": 6625,
      "ĠDAN": 6626,
      "Ġtoward": 6627,
      "ĠKl": 6628,
      "ediaan": 6629,
      "03": 6630,
      "ĠHist": 6631,
      "agaz": 6632,
      "Ġmult": 6633,
      "ĠFlorida": 6634,
      "Ġpec": 6635,
      "Ġmeant": 6636,
      "ĠGar": 6637,
      "Ġbecomes": 6638,
      ".I": 6639,
      "ĠJew": 6640,
      "Ġelements": 6641,
      "ĠCommission": 6642,
      "There": 6643,
      "ĠIndust": 6644,
      "arap": 6645,
      "Ġclaims": 6646,
      "Dalam": 6647,
      "injaman": 6648,
      "ayakan": 6649,
      "apers": 6650,
      "Ġscen": 6651,
      "UD": 6652,
      "Ġselamat": 6653,
      "ĠProv": 6654,
      "Ġsmooth": 6655,
      "####": 6656,
      "Ġcharacters": 6657,
      "ĠBerh": 6658,
      "PP": 6659,
      "ermine": 6660,
      "Ġdanger": 6661,
      "ented": 6662,
      "igan": 6663,
      "Ġvalid": 6664,
      "ĠElect": 6665,
      "ĠIts": 6666,
      "ĠDemocr": 6667,
      "ander": 6668,
      "mg": 6669,
      "Ġhandle": 6670,
      "Ġpieces": 6671,
      "ĠCustom": 6672,
      "oster": 6673,
      "Ġremaja": 6674,
      "Ġban": 6675,
      "Ġincred": 6676,
      "Ġlock": 6677,
      "utely": 6678,
      "ĠTanah": 6679,
      "Ġmoral": 6680,
      "Ġcreative": 6681,
      "equ": 6682,
      "akap": 6683,
      "Ġblue": 6684,
      "Ġvalues": 6685,
      "Ġsambil": 6686,
      "Ġmeman": 6687,
      "ĠInformation": 6688,
      "Ġgather": 6689,
      "Ġteaching": 6690,
      "oles": 6691,
      "Ġterlebih": 6692,
      "04": 6693,
      "Ġlupa": 6694,
      "How": 6695,
      "ĠTak": 6696,
      "lict": 6697,
      "Ġearth": 6698,
      "Ġonto": 6699,
      "Ġmiles": 6700,
      "roy": 6701,
      "Ġtip": 6702,
      "Ġbertujuan": 6703,
      "ĠTechnolog": 6704,
      "ĠFre": 6705,
      "ĠRoad": 6706,
      "Ġcompleted": 6707,
      "rd": 6708,
      "Ġmenyenangkan": 6709,
      "Ġteori": 6710,
      "avour": 6711,
      "Ġfunds": 6712,
      "ĠSocial": 6713,
      "Ġdistrict": 6714,
      "riage": 6715,
      "ĠLas": 6716,
      "193": 6717,
      "Ġdespite": 6718,
      "Ġdish": 6719,
      "Ġhors": 6720,
      "ĠChild": 6721,
      "pir": 6722,
      "ĠTwo": 6723,
      "Ġagreement": 6724,
      "lusive": 6725,
      "empatkan": 6726,
      "ican": 6727,
      "Ġsector": 6728,
      "Ġfill": 6729,
      "Ġkitchen": 6730,
      "istan": 6731,
      "Ġviews": 6732,
      "Ġtag": 6733,
      "ĠPK": 6734,
      "ĠCamp": 6735,
      "Ġsources": 6736,
      "Ġpanel": 6737,
      "AI": 6738,
      "Ġlol": 6739,
      "Ġlepas": 6740,
      "ĠDet": 6741,
      "Ġdetermine": 6742,
      "Ġwedding": 6743,
      "ĠFrench": 6744,
      "alls": 6745,
      "Ġpictures": 6746,
      "Ġmesti": 6747,
      "ĠKa": 6748,
      "ĠFam": 6749,
      "unikasi": 6750,
      "Ġasking": 6751,
      "olve": 6752,
      "Ġdaughter": 6753,
      "ervation": 6754,
      "Ġofficials": 6755,
      "Ġestate": 6756,
      "ayan": 6757,
      "Ġwilling": 6758,
      "arabangsa": 6759,
      "Ġic": 6760,
      ".The": 6761,
      "OW": 6762,
      "Ġdesain": 6763,
      "Ġclearly": 6764,
      "ĠMajlis": 6765,
      "Ġtechnical": 6766,
      "Ġkreat": 6767,
      "Ġsecret": 6768,
      "Ġtesting": 6769,
      "Ġsifat": 6770,
      "Ġlabor": 6771,
      "ĠSaf": 6772,
      "ĠTahun": 6773,
      "ĠOpen": 6774,
      "Ġterbuka": 6775,
      "enture": 6776,
      "kamah": 6777,
      "angor": 6778,
      "antic": 6779,
      "Ġdeveloping": 6780,
      "Ġvirus": 6781,
      "ĠTen": 6782,
      "ĠTom": 6783,
      "ĠDen": 6784,
      "ĠDirector": 6785,
      "awi": 6786,
      "Ġfiles": 6787,
      "bal": 6788,
      "Ġ**": 6789,
      "ean": 6790,
      "Ġplaced": 6791,
      "Ġdidapat": 6792,
      "-hal": 6793,
      "Ġallowing": 6794,
      "Ġsam": 6795,
      "ceg": 6796,
      "Ġnames": 6797,
      "araf": 6798,
      "Ġbuying": 6799,
      "Ġcentral": 6800,
      "Ġmengeluarkan": 6801,
      "Ġmenjelaskan": 6802,
      "Ġbehavior": 6803,
      "Ġsyn": 6804,
      "ĠBers": 6805,
      "Ġsty": 6806,
      "Ġmeminta": 6807,
      "Ġradio": 6808,
      "ĠØ§ÙĦ": 6809,
      "uji": 6810,
      "Ġtiba": 6811,
      "Ġgad": 6812,
      "EG": 6813,
      "indungi": 6814,
      "Ġtidur": 6815,
      "Ġcaused": 6816,
      "ternal": 6817,
      "Ġduduk": 6818,
      "Ġgrant": 6819,
      "uali": 6820,
      "Ġovers": 6821,
      "Ġcapacity": 6822,
      "Ġkadar": 6823,
      "Ġcontinues": 6824,
      "Ġjaringan": 6825,
      "Ġfinished": 6826,
      "Ġlaut": 6827,
      "Ġingr": 6828,
      "Ġselection": 6829,
      "Ġhadir": 6830,
      "Ġrelax": 6831,
      "Ġkeeping": 6832,
      "Ġjawatan": 6833,
      "Ġmisalnya": 6834,
      "Ġconference": 6835,
      "Ġvac": 6836,
      "Ġprepared": 6837,
      "Ġflu": 6838,
      "ĠBack": 6839,
      "Ġnomor": 6840,
      "gerakan": 6841,
      "Ġleadership": 6842,
      "ĠHave": 6843,
      "Ġmemut": 6844,
      "CC": 6845,
      "Ġkit": 6846,
      "Ġadvanced": 6847,
      "hy": 6848,
      "van": 6849,
      "Ġtarik": 6850,
      "Ġproduced": 6851,
      "Ġactions": 6852,
      "Ġcovered": 6853,
      "Ġtransaksi": 6854,
      "Ġsomew": 6855,
      "Ġberter": 6856,
      "Ġkonsumen": 6857,
      "iat": 6858,
      "Ġgraph": 6859,
      "Ġsew": 6860,
      "Ġseterusnya": 6861,
      "Ġcompetition": 6862,
      "ĠCongress": 6863,
      "ils": 6864,
      "AJ": 6865,
      "Ġkend": 6866,
      "Ġsimbol": 6867,
      "Ġexplore": 6868,
      "Ġcraft": 6869,
      "Ġpassion": 6870,
      "ĠAlex": 6871,
      "abilities": 6872,
      "Ġunik": 6873,
      "Ġmagn": 6874,
      "Ġdew": 6875,
      "Ġpanas": 6876,
      "ahim": 6877,
      "EK": 6878,
      "ĠSeperti": 6879,
      "Ġinterp": 6880,
      "ifically": 6881,
      "Ġunless": 6882,
      "apped": 6883,
      "ront": 6884,
      "Ġberkesan": 6885,
      "ĠSam": 6886,
      "ĠLong": 6887,
      "Ġsesi": 6888,
      "78": 6889,
      "Ġdecisions": 6890,
      "CH": 6891,
      "Ġprovider": 6892,
      "well": 6893,
      "usun": 6894,
      "Ġaf": 6895,
      "erse": 6896,
      "ĠBrown": 6897,
      "Ġlemb": 6898,
      "ekutuan": 6899,
      "eria": 6900,
      "Ġharm": 6901,
      "ĠDevelopment": 6902,
      "SP": 6903,
      "emahan": 6904,
      "Ġrank": 6905,
      "icious": 6906,
      "intaan": 6907,
      "ekan": 6908,
      "nown": 6909,
      "Ġadding": 6910,
      "Ġdedicated": 6911,
      "works": 6912,
      "hi": 6913,
      "ĠStand": 6914,
      "Ġselling": 6915,
      "/s": 6916,
      "Ġvirtual": 6917,
      "66": 6918,
      "indari": 6919,
      "Ġbattery": 6920,
      "Ġrule": 6921,
      "Ġpelanc": 6922,
      "Ġpertumbuhan": 6923,
      "Ġotherwise": 6924,
      "Ġshowed": 6925,
      "Ġorigin": 6926,
      "ĠPeg": 6927,
      "ĠLembaga": 6928,
      "ĠWhere": 6929,
      "Ġcalon": 6930,
      "Ġkasus": 6931,
      "Ġagency": 6932,
      "itors": 6933,
      "Ġvote": 6934,
      "Ġlinks": 6935,
      "Ġexhib": 6936,
      "Ġspending": 6937,
      "arikan": 6938,
      "angkap": 6939,
      "Ġmarkets": 6940,
      "annya": 6941,
      "ĠScience": 6942,
      "/or": 6943,
      "43": 6944,
      "Ġincor": 6945,
      "Ġmode": 6946,
      "RM": 6947,
      "Ġkunci": 6948,
      "Ġforget": 6949,
      "Ġrelationships": 6950,
      "Ġestim": 6951,
      "mu": 6952,
      "Ġsou": 6953,
      "Ġwaste": 6954,
      "ĠYear": 6955,
      "Ġworry": 6956,
      "berg": 6957,
      "ora": 6958,
      "pon": 6959,
      "Ġhilang": 6960,
      "Ġcentury": 6961,
      "Ġpurs": 6962,
      "aduate": 6963,
      "eline": 6964,
      "Â®": 6965,
      "ĠArch": 6966,
      "ĠEngland": 6967,
      "Ġmengapa": 6968,
      "tered": 6969,
      "Ġremind": 6970,
      "inaan": 6971,
      "ĠAnal": 6972,
      "gris": 6973,
      "Ġwindow": 6974,
      "Ġtaste": 6975,
      "Ġcore": 6976,
      "ivity": 6977,
      "akuan": 6978,
      "Ġmostly": 6979,
      "Ġpad": 6980,
      "Ġwujud": 6981,
      "Ġpoll": 6982,
      "Ġbergerak": 6983,
      "Ġrepair": 6984,
      "Ġvill": 6985,
      "acement": 6986,
      "Ġsession": 6987,
      "atik": 6988,
      "Ġupgr": 6989,
      "Ġsusp": 6990,
      "ĠMeskipun": 6991,
      "Ġpromosi": 6992,
      "ĠHotel": 6993,
      "Ġdepend": 6994,
      "angguan": 6995,
      "Ġcrowd": 6996,
      "Ġingredi": 6997,
      "itamin": 6998,
      "Ġbutton": 6999,
      "orry": 7000,
      "estic": 7001,
      "Ġusia": 7002,
      "iled": 7003,
      "SS": 7004,
      "120": 7005,
      "ĠOp": 7006,
      "Ġpump": 7007,
      "alatan": 7008,
      "Ġbecoming": 7009,
      "Ġhonest": 7010,
      "Ġpasukan": 7011,
      "Ġpeace": 7012,
      "Ġoperating": 7013,
      "Ġthousands": 7014,
      "-H": 7015,
      "irim": 7016,
      "ston": 7017,
      "acks": 7018,
      "gal": 7019,
      "etuju": 7020,
      "Ġsejumlah": 7021,
      "Ġmalah": 7022,
      "Ġmengembangkan": 7023,
      "opy": 7024,
      "-of": 7025,
      "ĠRiver": 7026,
      "Ġinfluence": 7027,
      "bed": 7028,
      "igned": 7029,
      "Ġidentify": 7030,
      "Ġdecide": 7031,
      "VID": 7032,
      "adangan": 7033,
      "Ġaware": 7034,
      "Ġpsik": 7035,
      "ĠAhmad": 7036,
      "Ġspl": 7037,
      "Ġpemikiran": 7038,
      "ĠSaat": 7039,
      "enarkan": 7040,
      "Ġhuj": 7041,
      "Ġwatching": 7042,
      "Ġrain": 7043,
      "ĠInvest": 7044,
      "ĠHill": 7045,
      "Ġholiday": 7046,
      "Ġopinion": 7047,
      "Ġsharing": 7048,
      "Ġcloud": 7049,
      "Ġmaintenance": 7050,
      "yek": 7051,
      "Ġconcerns": 7052,
      "obile": 7053,
      "asure": 7054,
      "Ġkaya": 7055,
      "ĠMain": 7056,
      "Ġkejadian": 7057,
      "ĠMicrosoft": 7058,
      "Ġwine": 7059,
      "ĠFort": 7060,
      "Ġbomb": 7061,
      "ĠGeorge": 7062,
      "Ġfurn": 7063,
      "ĠWord": 7064,
      "My": 7065,
      "icken": 7066,
      "ĠTake": 7067,
      "iliar": 7068,
      "Ġstrategies": 7069,
      "800": 7070,
      "Ġbeach": 7071,
      "ĠKetika": 7072,
      "onna": 7073,
      "Ġfamous": 7074,
      "Ġpakar": 7075,
      "Ġpresence": 7076,
      "Ġmengenal": 7077,
      "On": 7078,
      "Ġcruc": 7079,
      "ĠMalays": 7080,
      "kes": 7081,
      "Ġtumb": 7082,
      "Ġyes": 7083,
      "Ġflat": 7084,
      "urangi": 7085,
      "ĠBill": 7086,
      "Ġforms": 7087,
      "okongan": 7088,
      "Ġfak": 7089,
      "ĠLap": 7090,
      "bar": 7091,
      "Ġcontroll": 7092,
      "Ġprinsip": 7093,
      "ĠMedic": 7094,
      "Ġplants": 7095,
      "gery": 7096,
      "Ġinitial": 7097,
      "ĠFe": 7098,
      "Ġthus": 7099,
      "Ġvision": 7100,
      "250": 7101,
      "adual": 7102,
      "ekalkan": 7103,
      "elih": 7104,
      "agasa": 7105,
      "Ġenvironmental": 7106,
      "ĠForm": 7107,
      "Ġsexual": 7108,
      "nel": 7109,
      "Ġdescribed": 7110,
      "inar": 7111,
      "Ġmemulai": 7112,
      "ĠInggris": 7113,
      "Ġikut": 7114,
      "Ġshowing": 7115,
      "ambahkan": 7116,
      "agasaon": 7117,
      "Ġemas": 7118,
      "Ġbermula": 7119,
      "Ġmangsa": 7120,
      "Ġice": 7121,
      "Ġminat": 7122,
      "Ġdirection": 7123,
      "ĠEV": 7124,
      "ĠEr": 7125,
      "Ġtrial": 7126,
      "ijakan": 7127,
      "uries": 7128,
      "Ġposted": 7129,
      "yuar": 7130,
      "For": 7131,
      "ebar": 7132,
      "Ġpow": 7133,
      "Ġvolume": 7134,
      "lamat": 7135,
      "Ġstruct": 7136,
      "yan": 7137,
      "Ġshopping": 7138,
      "mpt": 7139,
      "aporkan": 7140,
      "Ġpasangan": 7141,
      "onen": 7142,
      "ĠCEO": 7143,
      "Ġrecords": 7144,
      "Ġpilih": 7145,
      "atang": 7146,
      "Ġaccident": 7147,
      "isation": 7148,
      "Ġplenty": 7149,
      "Ġmeraih": 7150,
      "Ġemosi": 7151,
      "akses": 7152,
      "cing": 7153,
      "Ġexperts": 7154,
      "Saya": 7155,
      "Ġmemory": 7156,
      "Ġmemperk": 7157,
      "Ġprofessionals": 7158,
      "ĠDato": 7159,
      "olf": 7160,
      "Ġasli": 7161,
      "Ġresidents": 7162,
      "ĠBeg": 7163,
      "Ġsepak": 7164,
      "Ġbrother": 7165,
      "Ġwelcome": 7166,
      "ĠBh": 7167,
      "mbol": 7168,
      "ĠIr": 7169,
      "Ġspring": 7170,
      "Pro": 7171,
      "That": 7172,
      "ĠCare": 7173,
      "Ġbeat": 7174,
      "esterday": 7175,
      "Ġsisi": 7176,
      "Ġsouth": 7177,
      "emuk": 7178,
      "Ġasal": 7179,
      "Ġbersifat": 7180,
      "Ġmanufactur": 7181,
      "Ġpaint": 7182,
      "Ġfacilities": 7183,
      "Ġpresented": 7184,
      "Ġmembolehkan": 7185,
      "Ġdisk": 7186,
      "ĠApabila": 7187,
      "ĠSed": 7188,
      "Ġnanti": 7189,
      "ĠKec": 7190,
      "Ġruns": 7191,
      "ĠBab": 7192,
      "-N": 7193,
      "ĠHy": 7194,
      "yuarat": 7195,
      "ĠPAS": 7196,
      "Ġfriendly": 7197,
      "ĠProt": 7198,
      "Ġstreet": 7199,
      "Ġpenilaian": 7200,
      "Ġtree": 7201,
      "arge": 7202,
      "dapat": 7203,
      "ĠTO": 7204,
      "Ġtrend": 7205,
      "Ġweak": 7206,
      "Ġmeskipun": 7207,
      "Ġnyaman": 7208,
      "Ùĩ": 7209,
      "cohol": 7210,
      "umah": 7211,
      "Ġpelab": 7212,
      "Ġteachers": 7213,
      "Ġleaving": 7214,
      "Ġintel": 7215,
      "Ġalternative": 7216,
      "ercayaan": 7217,
      "Ġvital": 7218,
      "usion": 7219,
      "entang": 7220,
      "Ġshape": 7221,
      "ĠAmazon": 7222,
      "Ġdiharapkan": 7223,
      "ĠAfrica": 7224,
      "gk": 7225,
      "Ġsaham": 7226,
      "Ġminor": 7227,
      "asih": 7228,
      "eption": 7229,
      "Ġmusc": 7230,
      "ĠBeliau": 7231,
      "ria": 7232,
      "ĠFind": 7233,
      "56": 7234,
      "ĠKalau": 7235,
      "Ġtask": 7236,
      "Sh": 7237,
      "Ġnorth": 7238,
      "Ġweap": 7239,
      "Ġfokus": 7240,
      "ĠCall": 7241,
      "ĠKad": 7242,
      "ankan": 7243,
      "ĠAtl": 7244,
      "Ġnegatif": 7245,
      "ailand": 7246,
      "Ġterletak": 7247,
      "ĠMont": 7248,
      "-on": 7249,
      "Ġsugar": 7250,
      "ĠJournal": 7251,
      "Ġfootball": 7252,
      "Ġtekanan": 7253,
      "ulti": 7254,
      "Ġexpand": 7255,
      "Ġdisp": 7256,
      "idential": 7257,
      "omas": 7258,
      "Ġdipert": 7259,
      "ĠFranc": 7260,
      "Ġbakal": 7261,
      "ompl": 7262,
      "Ġapprox": 7263,
      "raz": 7264,
      "last": 7265,
      "apaian": 7266,
      "Ġmelakukannya": 7267,
      "Ġgagal": 7268,
      "Ġkilled": 7269,
      "untukan": 7270,
      "Ġsmaller": 7271,
      "RI": 7272,
      "Ġjournal": 7273,
      "Ġthrow": 7274,
      "eer": 7275,
      "Ġopened": 7276,
      "urna": 7277,
      "Ġpakai": 7278,
      "gu": 7279,
      "ĠGun": 7280,
      "ĠPoker": 7281,
      "Ġbergantung": 7282,
      "Ġsudden": 7283,
      "Ġpengeluaran": 7284,
      "ĠAdditional": 7285,
      "ĠWin": 7286,
      "Ġduk": 7287,
      "Ġsemuanya": 7288,
      "Ġnumerous": 7289,
      "Ġnasional": 7290,
      "ahankan": 7291,
      "jid": 7292,
      "ĠProject": 7293,
      "Ġberasal": 7294,
      "Ġkandungan": 7295,
      "Ġproud": 7296,
      "Ġbeauty": 7297,
      "ĠMuhammad": 7298,
      "aiwan": 7299,
      "ubuhan": 7300,
      "Ġfocused": 7301,
      "fol": 7302,
      "ĠMex": 7303,
      "Ġindependent": 7304,
      "Ġattach": 7305,
      "arusnya": 7306,
      "ĠGrand": 7307,
      "ĠHari": 7308,
      "Ġgunakan": 7309,
      "Ġtypically": 7310,
      "Ġshut": 7311,
      "Ġmilik": 7312,
      "Ġsport": 7313,
      "intahan": 7314,
      "asilan": 7315,
      "Ġpolicies": 7316,
      "ĠEnter": 7317,
      "ĠEngine": 7318,
      "Ġtemperature": 7319,
      "Ġpej": 7320,
      "Ġtimb": 7321,
      "ĠBarat": 7322,
      "Ġentertain": 7323,
      "ĠMelaka": 7324,
      "Ġlisten": 7325,
      "Ġmewujudkan": 7326,
      "emuan": 7327,
      "ĠBre": 7328,
      "ĠLim": 7329,
      "Ġmort": 7330,
      "Ġposisi": 7331,
      "icago": 7332,
      "ĠUniversiti": 7333,
      "Ġdijadikan": 7334,
      "Ġmuka": 7335,
      "ĠSementara": 7336,
      "ĠHaji": 7337,
      "elanj": 7338,
      "een": 7339,
      "angkutan": 7340,
      "-dua": 7341,
      "ĠIll": 7342,
      "umn": 7343,
      "yatakan": 7344,
      "ĠFood": 7345,
      "Ġevening": 7346,
      "But": 7347,
      "Ġrestrict": 7348,
      "Ġberfungsi": 7349,
      "58": 7350,
      "Ġtadi": 7351,
      "ework": 7352,
      "ĠColor": 7353,
      "Ġtechniques": 7354,
      "itz": 7355,
      "issions": 7356,
      "Ġstarts": 7357,
      "lusion": 7358,
      "Ġberbanding": 7359,
      "Ġclosed": 7360,
      "Ġegg": 7361,
      "Ġpola": 7362,
      "Ġinjury": 7363,
      "Ġdepartment": 7364,
      "ĠPD": 7365,
      "tiwa": 7366,
      "Ġmengajar": 7367,
      "ĠSultan": 7368,
      "Ġcommitment": 7369,
      "ĠOnly": 7370,
      "Ġkau": 7371,
      "Ġschedule": 7372,
      "ĠBefore": 7373,
      "ĠSab": 7374,
      "Ġmetal": 7375,
      "Ġfell": 7376,
      "ĠHasil": 7377,
      "Ġpakaian": 7378,
      "Ġbright": 7379,
      "Ġdiscount": 7380,
      "Ġpersp": 7381,
      "Ġdipilih": 7382,
      "Ġrestaurant": 7383,
      "Ĥ¬": 7384,
      "Ġtat": 7385,
      "Ġpersek": 7386,
      "Ġpolis": 7387,
      "ĠÂ·": 7388,
      "ĠSpecial": 7389,
      "600": 7390,
      "ongs": 7391,
      "ĠPertama": 7392,
      "ĠFire": 7393,
      "Ġfeels": 7394,
      "Ġmenambah": 7395,
      "ĠUnion": 7396,
      "Ġchair": 7397,
      "Ġconflict": 7398,
      "Ġrid": 7399,
      "ajemen": 7400,
      "Ġfee": 7401,
      "Ġsukses": 7402,
      "Ġappears": 7403,
      "Ġtough": 7404,
      "ĠIb": 7405,
      "Ġsemb": 7406,
      "icians": 7407,
      "Ġpredict": 7408,
      "Ġwinter": 7409,
      "ĠBur": 7410,
      "Ġcircum": 7411,
      "Ġtrail": 7412,
      "FL": 7413,
      "ĠSeh": 7414,
      "Ġgeneration": 7415,
      "ĠMP": 7416,
      "outs": 7417,
      "Ġcoverage": 7418,
      "abet": 7419,
      "ĠTimes": 7420,
      "Ġemotional": 7421,
      "indahan": 7422,
      "Ġjen": 7423,
      "ĠPermainan": 7424,
      "Ġanimals": 7425,
      "rah": 7426,
      "atures": 7427,
      "Ġpurpos": 7428,
      "angga": 7429,
      "Ġeventually": 7430,
      "Seb": 7431,
      "Ġraised": 7432,
      "Ġtik": 7433,
      "Ġended": 7434,
      "Ġveget": 7435,
      "-L": 7436,
      "ĠCard": 7437,
      "Ġketerampilan": 7438,
      "ĠWood": 7439,
      "Ġwinning": 7440,
      "iture": 7441,
      "Ġgolf": 7442,
      "Ġimportance": 7443,
      "Ġhebat": 7444,
      "Ġoperation": 7445,
      "fast": 7446,
      "Ġsurvey": 7447,
      "Ġsehari": 7448,
      "ĠConn": 7449,
      "Ġinstitusi": 7450,
      "eny": 7451,
      "ĠMount": 7452,
      "ugian": 7453,
      "Ġakurat": 7454,
      "Ġmarried": 7455,
      "Ġproperties": 7456,
      "Ġwat": 7457,
      "Ġsekal": 7458,
      "Ġanalisis": 7459,
      "ubatan": 7460,
      "uled": 7461,
      "Ġmenimb": 7462,
      "laim": 7463,
      "Ġapps": 7464,
      "Ġdire": 7465,
      "Ġsoal": 7466,
      "Ġpertanyaan": 7467,
      "Ġkick": 7468,
      "Ġfunding": 7469,
      "Ġseparate": 7470,
      "Ġprotein": 7471,
      "Ġentry": 7472,
      "while": 7473,
      "Ġliber": 7474,
      "Ġthoughts": 7475,
      "Ġdocuments": 7476,
      "teri": 7477,
      "Phone": 7478,
      "Ġdistance": 7479,
      "59": 7480,
      "going": 7481,
      "Ġtampak": 7482,
      "Ġmcm": 7483,
      "ĠJersey": 7484,
      "192": 7485,
      "Ġchanging": 7486,
      "ĠGlobal": 7487,
      "57": 7488,
      "tu": 7489,
      "Ġclassic": 7490,
      "Ġcontext": 7491,
      "Ġputih": 7492,
      "stit": 7493,
      "Ġnegative": 7494,
      "ĠAD": 7495,
      "ĠBoth": 7496,
      "ĠAhli": 7497,
      "eral": 7498,
      "ilaku": 7499,
      "Ġmeasures": 7500,
      "key": 7501,
      "ampilkan": 7502,
      "Ġforg": 7503,
      "umsi": 7504,
      "Ġarchitect": 7505,
      "Ġsekiranya": 7506,
      "Ġcultural": 7507,
      "Ġenam": 7508,
      "Ġsounds": 7509,
      "Ġudara": 7510,
      "ĠSP": 7511,
      "Ġcells": 7512,
      "Ġlagu": 7513,
      "Ġthr": 7514,
      "endapat": 7515,
      "Ġformal": 7516,
      "Ġproperly": 7517,
      "ĠBit": 7518,
      "Ġenfor": 7519,
      "Ġquant": 7520,
      "Ġteacher": 7521,
      "ĠSelangor": 7522,
      "Ġujian": 7523,
      "Ġapart": 7524,
      "Ġterror": 7525,
      "Ġpreviously": 7526,
      "Ġresponsibility": 7527,
      "Ġmicro": 7528,
      "uclear": 7529,
      "Ġaudio": 7530,
      "Ġforex": 7531,
      "Ġexchange": 7532,
      "andom": 7533,
      "II": 7534,
      "uddin": 7535,
      "han": 7536,
      "ras": 7537,
      "esome": 7538,
      "Ġgenerasi": 7539,
      "etakkan": 7540,
      "atian": 7541,
      "Ġinov": 7542,
      "Ġpantai": 7543,
      "ĠPusat": 7544,
      "ĠMass": 7545,
      "Ġcrim": 7546,
      "Ġayat": 7547,
      "rier": 7548,
      "ĠOpt": 7549,
      "Ġcommitted": 7550,
      "Ġrise": 7551,
      "52": 7552,
      "Ġlun": 7553,
      "andu": 7554,
      "ĠCarol": 7555,
      "ĠLog": 7556,
      "Ġisi": 7557,
      "Ġkerjasama": 7558,
      "ega": 7559,
      "tiviti": 7560,
      "Ġring": 7561,
      "enger": 7562,
      "Ġeating": 7563,
      "ucks": 7564,
      "Ġmanaged": 7565,
      "Ġdiscussion": 7566,
      "Tr": 7567,
      "-the": 7568,
      "Ġcrucial": 7569,
      "akers": 7570,
      "ĠHam": 7571,
      "ĠFollow": 7572,
      "ĠVirgin": 7573,
      "ĠJohor": 7574,
      "Ġsan": 7575,
      "Ġwindows": 7576,
      "Ġpaying": 7577,
      "ĠÃ": 7578,
      "Ġtahan": 7579,
      "Ġstruktur": 7580,
      "Ġlisted": 7581,
      "ubungi": 7582,
      "Ġko": 7583,
      "ikirkan": 7584,
      "Ġexciting": 7585,
      "When": 7586,
      "ĠMill": 7587,
      "know": 7588,
      "ĠSatu": 7589,
      "uksi": 7590,
      "adbiran": 7591,
      "Ġperatus": 7592,
      "ĠAND": 7593,
      "ĠGovernment": 7594,
      "Ġmouth": 7595,
      "Ġfees": 7596,
      "Ġposts": 7597,
      "ĠRakyat": 7598,
      "Ġsnow": 7599,
      "ĠMa": 7600,
      "ogel": 7601,
      "Ġholding": 7602,
      "Ġmedium": 7603,
      "ĠSand": 7604,
      "Ġartist": 7605,
      "-day": 7606,
      "eme": 7607,
      "ahl": 7608,
      "Ġunl": 7609,
      "They": 7610,
      "Ġexcited": 7611,
      "ĠPin": 7612,
      "uting": 7613,
      "Ġclimate": 7614,
      "Ġkursus": 7615,
      "izin": 7616,
      "Ġabsolutely": 7617,
      "Di": 7618,
      "Ġsokongan": 7619,
      "Ġscore": 7620,
      "ĠScott": 7621,
      "ĠRas": 7622,
      "IAN": 7623,
      "Ġmo": 7624,
      "Ġmendukung": 7625,
      "ĠSri": 7626,
      "Ġdebt": 7627,
      "ĠStart": 7628,
      "ĠMaka": 7629,
      "ĠLead": 7630,
      "iapkan": 7631,
      "Ġenhance": 7632,
      "Ġsb": 7633,
      "ĠSitus": 7634,
      "Ġmenciptakan": 7635,
      "Ġpackage": 7636,
      "Ġseeking": 7637,
      "Ġselected": 7638,
      "Ġmendapati": 7639,
      "Ġgaming": 7640,
      "ĠFrank": 7641,
      "Ġbrief": 7642,
      "Ġreached": 7643,
      "Ġbertindak": 7644,
      "-ch": 7645,
      "atically": 7646,
      "akter": 7647,
      "Ġlabel": 7648,
      "Ġconnected": 7649,
      "Ġmail": 7650,
      "Ġpip": 7651,
      "ĠIsland": 7652,
      "Ġexplain": 7653,
      "onsel": 7654,
      "oration": 7655,
      "Ġkedudukan": 7656,
      "ĠKey": 7657,
      "unuh": 7658,
      "-th": 7659,
      "ĠMil": 7660,
      "Ġattempt": 7661,
      "unjungi": 7662,
      "Ġpotensi": 7663,
      "ĠChicago": 7664,
      "Ġaktivitas": 7665,
      "Ġprocesses": 7666,
      "Ġclasses": 7667,
      "Ġkapal": 7668,
      "ĠDiv": 7669,
      "ĠMeny": 7670,
      "ji": 7671,
      "Ġdoubt": 7672,
      "ĠPeter": 7673,
      "Ġminute": 7674,
      "Ġhearing": 7675,
      "anduan": 7676,
      "isten": 7677,
      "aras": 7678,
      "ales": 7679,
      "Ġsmartphone": 7680,
      "Ġmeninggalkan": 7681,
      "Ġbunga": 7682,
      "Ġperg": 7683,
      "ste": 7684,
      "Ġrub": 7685,
      "Ġputting": 7686,
      "Ġcuba": 7687,
      "Ġcomprehensive": 7688,
      "Ġskill": 7689,
      "ipta": 7690,
      "Ġmaksud": 7691,
      "Ġintellig": 7692,
      "ĠProduct": 7693,
      "tas": 7694,
      "Ġindonesia": 7695,
      "resp": 7696,
      "Ġsongs": 7697,
      "yr": 7698,
      "-sama": 7699,
      "Ġraise": 7700,
      "Ġsukar": 7701,
      "ĠFoundation": 7702,
      "ĠThose": 7703,
      "ĠLi": 7704,
      "Ġshit": 7705,
      "Ġride": 7706,
      "Ġelection": 7707,
      "Ġpant": 7708,
      "Ġnas": 7709,
      "indungan": 7710,
      "ez": 7711,
      "Ġseharusnya": 7712,
      "-le": 7713,
      "!\"": 7714,
      "Ġessay": 7715,
      "Ġguna": 7716,
      "Ġseemed": 7717,
      "zen": 7718,
      "Ġkompet": 7719,
      "itaran": 7720,
      "Ġcart": 7721,
      "Ġproceed": 7722,
      "Ġarticles": 7723,
      "ĠHospital": 7724,
      "Ġleaves": 7725,
      "Ġfemale": 7726,
      "Ġoperator": 7727,
      "ĠBerhormat": 7728,
      "Ġcontains": 7729,
      "Ġpengaruh": 7730,
      "Ġcorporate": 7731,
      "ĠAli": 7732,
      "Ġnotes": 7733,
      "ĠKota": 7734,
      "Ġtow": 7735,
      "Ġdynam": 7736,
      "unning": 7737,
      "ĠWil": 7738,
      "ĠLab": 7739,
      "unjung": 7740,
      "ĠWall": 7741,
      "Ġsea": 7742,
      "ĠPerson": 7743,
      "Ġmaju": 7744,
      "Ġbrings": 7745,
      "ĠKeep": 7746,
      "Ġslightly": 7747,
      "Ġobj": 7748,
      "Ġdefend": 7749,
      "ategori": 7750,
      "Ġhelpful": 7751,
      "Ġunsur": 7752,
      "Ġcombination": 7753,
      "MA": 7754,
      "ĠCommunity": 7755,
      "udayaan": 7756,
      "ĠWalaupun": 7757,
      "ĠView": 7758,
      "EW": 7759,
      "Ġsebahagian": 7760,
      "ĠPenn": 7761,
      "ĠLove": 7762,
      "andang": 7763,
      "Ġdefense": 7764,
      "ulate": 7765,
      "Ġtopic": 7766,
      "agazine": 7767,
      "ĠJer": 7768,
      "Ġconfidence": 7769,
      "Ġtau": 7770,
      "ĠTerdapat": 7771,
      "Ġwalking": 7772,
      "Ġkin": 7773,
      "Ġcharges": 7774,
      "Ġpil": 7775,
      "abase": 7776,
      "Ġefficient": 7777,
      "Ġinspir": 7778,
      "/p": 7779,
      "-K": 7780,
      "ĠIII": 7781,
      "Ġcleaning": 7782,
      "Ġneighbor": 7783,
      "Ġcender": 7784,
      "Ġperalatan": 7785,
      "aktif": 7786,
      "Ġtotally": 7787,
      "ĠDistrict": 7788,
      "Ġmit": 7789,
      "Ġgarden": 7790,
      "Ġdewasa": 7791,
      "Ġumumnya": 7792,
      "Ġpromote": 7793,
      "gar": 7794,
      "Ġleads": 7795,
      "yang": 7796,
      "ĠPri": 7797,
      "ayai": 7798,
      "ĠSes": 7799,
      "ĠMag": 7800,
      "udahkan": 7801,
      "Ġcolors": 7802,
      "ĠRobert": 7803,
      "olars": 7804,
      "attle": 7805,
      "Ġworse": 7806,
      "Ġfunctional": 7807,
      "unyi": 7808,
      "arakan": 7809,
      "Ġwhom": 7810,
      "Ġip": 7811,
      "Ġlayak": 7812,
      "Ġregist": 7813,
      "under": 7814,
      "den": 7815,
      "Ġdiss": 7816,
      "Ġpm": 7817,
      "Ġspect": 7818,
      "unting": 7819,
      "urunan": 7820,
      "razy": 7821,
      "Ġkepercayaan": 7822,
      "osph": 7823,
      "Ġgangguan": 7824,
      "ĠMis": 7825,
      "ĠMaster": 7826,
      "Ġfuck": 7827,
      "Ġbattle": 7828,
      "Ġassistance": 7829,
      "ĠSociety": 7830,
      "ĠTor": 7831,
      "umkan": 7832,
      "asts": 7833,
      "Ġeffectively": 7834,
      "Ġteks": 7835,
      "Ġfoto": 7836,
      "Ġreligious": 7837,
      "Ġlip": 7838,
      "kini": 7839,
      "aftaran": 7840,
      "Ġemergency": 7841,
      "Ġmemanfaatkan": 7842,
      "ĠKemudian": 7843,
      "Ġmanakala": 7844,
      "Ġhutan": 7845,
      "Ġgre": 7846,
      "-free": 7847,
      "Ġdinner": 7848,
      "epatan": 7849,
      "ĠJakarta": 7850,
      "Ġwebsites": 7851,
      "Ġsignificantly": 7852,
      "ukul": 7853,
      "asta": 7854,
      "Ġedge": 7855,
      "ĠCentral": 7856,
      "ĠCD": 7857,
      "Ġsempurna": 7858,
      "LC": 7859,
      "ĠKajian": 7860,
      "Ġkerugian": 7861,
      "Ġkualiti": 7862,
      "Ġsab": 7863,
      "Ġodd": 7864,
      "Ġminimal": 7865,
      "ĠJohnson": 7866,
      "ifts": 7867,
      "191": 7868,
      "bert": 7869,
      "fortunately": 7870,
      "ambat": 7871,
      "Ġapplied": 7872,
      "ĠJud": 7873,
      "essions": 7874,
      "ĠYa": 7875,
      "oalan": 7876,
      "Ġpremium": 7877,
      "Ġrom": 7878,
      "ĠKn": 7879,
      "Ġadministration": 7880,
      "Ġscale": 7881,
      "Ġcream": 7882,
      "ĠValley": 7883,
      "di": 7884,
      "using": 7885,
      "ĠMedical": 7886,
      "64": 7887,
      "Ġperib": 7888,
      "Ġguests": 7889,
      "ĠUndang": 7890,
      "Ġupaya": 7891,
      "Ġakadem": 7892,
      "Ġplastic": 7893,
      "Ġhadapan": 7894,
      "ĠSecurity": 7895,
      "ĠðŁĺ": 7896,
      "Ġparking": 7897,
      "Ġspons": 7898,
      "obe": 7899,
      "fully": 7900,
      "look": 7901,
      "Ġgam": 7902,
      "Ġyakin": 7903,
      "Ġsympt": 7904,
      "Ġbukanlah": 7905,
      "mail": 7906,
      "Ġdrama": 7907,
      "Ġbond": 7908,
      "Ġjer": 7909,
      "Ġmendorong": 7910,
      "ĠPersekutuan": 7911,
      "ĠUMNO": 7912,
      "Ġsehat": 7913,
      "Ġartists": 7914,
      "ograf": 7915,
      "ĠPerj": 7916,
      "Ġbertanggungjawab": 7917,
      "Ġfilled": 7918,
      "Ġkole": 7919,
      "Ġumat": 7920,
      "lass": 7921,
      "hop": 7922,
      "berry": 7923,
      "zah": 7924,
      "ĠLeague": 7925,
      "Ġkant": 7926,
      "ĠRaja": 7927,
      "ĠTah": 7928,
      "Ġnavig": 7929,
      "ohonan": 7930,
      "ĠTeam": 7931,
      "Ġnagasaon": 7932,
      "Ġseat": 7933,
      "tire": 7934,
      "Ġappar": 7935,
      "Ġberhenti": 7936,
      "uasaan": 7937,
      "Ġforum": 7938,
      "Ġinteg": 7939,
      "ĠEst": 7940,
      "Ġeditor": 7941,
      "irt": 7942,
      "Ġensuring": 7943,
      "Ġpitch": 7944,
      "ĠMichigan": 7945,
      "OC": 7946,
      "Ġbaju": 7947,
      "ĠBeach": 7948,
      "Ġhalaman": 7949,
      "Ġplays": 7950,
      "Ġcitizens": 7951,
      "ĠDI": 7952,
      "Ġid": 7953,
      "Ġberper": 7954,
      "Ġmelip": 7955,
      "-ti": 7956,
      "Ġmap": 7957,
      "Ġbumi": 7958,
      "ĠMax": 7959,
      "ĠCommittee": 7960,
      "afs": 7961,
      "Ġdokumen": 7962,
      "ribe": 7963,
      "Ġtight": 7964,
      "amakan": 7965,
      "ĠSimp": 7966,
      "ĠKedua": 7967,
      "Ġpemerintahan": 7968,
      "ĠSu": 7969,
      "ĠMenj": 7970,
      "Ġperang": 7971,
      "ĠNasional": 7972,
      "ĠPlus": 7973,
      "ĠMinister": 7974,
      "Ġmengatur": 7975,
      "Ġdikenali": 7976,
      "emukakan": 7977,
      "Ġbenda": 7978,
      "Ġfaster": 7979,
      "ĠMS": 7980,
      "Ġmenuju": 7981,
      "Ġkemajuan": 7982,
      "Ġikan": 7983,
      "asana": 7984,
      "ĠSign": 7985,
      "Ġmarriage": 7986,
      "inos": 7987,
      "ianya": 7988,
      "Ġhij": 7989,
      "190": 7990,
      "ĠImp": 7991,
      "Ġtep": 7992,
      "ĠJul": 7993,
      "Ġattor": 7994,
      "Ġtanggungjawab": 7995,
      "Ġdogs": 7996,
      "69": 7997,
      "Ġcities": 7998,
      "ĠEarth": 7999,
      "ĠSyarikat": 8000,
      "Ġfisik": 8001,
      "Ġbird": 8002,
      "road": 8003,
      "Ġmendengar": 8004,
      "ĠSebelum": 8005,
      "Ġmahasiswa": 8006,
      "los": 8007,
      "Ġstated": 8008,
      "Ġpinjaman": 8009,
      "edur": 8010,
      "otic": 8011,
      "Ġremoved": 8012,
      "ĠSingapura": 8013,
      "inating": 8014,
      "Ġsoul": 8015,
      "Ġketidak": 8016,
      "elian": 8017,
      "Ġforces": 8018,
      "Ġboost": 8019,
      "Ġcorner": 8020,
      "ĠTest": 8021,
      "idden": 8022,
      "Ġelim": 8023,
      "Ġrooms": 8024,
      "Ġacademic": 8025,
      "Ġprofile": 8026,
      "Ġberlangsung": 8027,
      "Ġmempelajari": 8028,
      "omet": 8029,
      "tron": 8030,
      "etik": 8031,
      "yair": 8032,
      "lo": 8033,
      "wal": 8034,
      "Ġwitness": 8035,
      "ĠDid": 8036,
      "ĠCH": 8037,
      "Ġpastikan": 8038,
      "ĠKorea": 8039,
      "ĠLee": 8040,
      "Ġfactor": 8041,
      "Ġspiritual": 8042,
      "ĠWomen": 8043,
      "ĠRom": 8044,
      "Ġsukan": 8045,
      "Ġdiadakan": 8046,
      "Ġatm": 8047,
      "ĠBandar": 8048,
      "Ġinterests": 8049,
      "Ġthread": 8050,
      "ikes": 8051,
      "retch": 8052,
      "anggil": 8053,
      "Ġvehicles": 8054,
      "icy": 8055,
      "ĠMaybe": 8056,
      "imbang": 8057,
      "Ġfailed": 8058,
      "ĠTour": 8059,
      "ĠGerm": 8060,
      "ĠWilliam": 8061,
      "Ġyouth": 8062,
      "Ġmelahirkan": 8063,
      "Ġspecifically": 8064,
      "orter": 8065,
      "Ġperman": 8066,
      "elines": 8067,
      "ĠEnd": 8068,
      "ariah": 8069,
      "Ġhighlight": 8070,
      "ĠLight": 8071,
      "Ġadvance": 8072,
      "Ġuniversity": 8073,
      "Ġperkataan": 8074,
      "Ġreturned": 8075,
      "Ġbang": 8076,
      "Ġpermintaan": 8077,
      "ĠContact": 8078,
      "Ġsad": 8079,
      "Ġpin": 8080,
      "urd": 8081,
      "Ġspecies": 8082,
      "ĠBerd": 8083,
      "68": 8084,
      "EB": 8085,
      "Ġnoted": 8086,
      "ĠVideo": 8087,
      "ĠAntara": 8088,
      "ĠCasino": 8089,
      "Ġrecip": 8090,
      "ĠAmericans": 8091,
      "Ġconversation": 8092,
      "bo": 8093,
      "ĠMike": 8094,
      "bour": 8095,
      "Ġlux": 8096,
      "antara": 8097,
      "Ġprincip": 8098,
      "esen": 8099,
      "Ġbangunan": 8100,
      "Ġunits": 8101,
      "ĠON": 8102,
      "!âĢĿ": 8103,
      "ulty": 8104,
      "lines": 8105,
      "Ġemph": 8106,
      "Ġcalling": 8107,
      "utnya": 8108,
      "Ġamalan": 8109,
      "Ġnegoti": 8110,
      "ĠShow": 8111,
      "Ġaspects": 8112,
      "vention": 8113,
      "Ġefficiency": 8114,
      "Ġdimiliki": 8115,
      "Ġbot": 8116,
      "ulated": 8117,
      "ĠRos": 8118,
      "Ġsigns": 8119,
      "oral": 8120,
      "ĠThomas": 8121,
      "apes": 8122,
      "Ġsud": 8123,
      "Ġsamb": 8124,
      "elled": 8125,
      "Why": 8126,
      "Ġukuran": 8127,
      "Ġconsumers": 8128,
      "ĠNext": 8129,
      "ĠWestern": 8130,
      "Ġsaran": 8131,
      "Ġconcent": 8132,
      "Ġrou": 8133,
      "Ġprestasi": 8134,
      "ukar": 8135,
      "Ġbound": 8136,
      "ĠTre": 8137,
      "Ġcontinu": 8138,
      "ĠSingapore": 8139,
      "Ġrecommended": 8140,
      "Ġchemical": 8141,
      "Ġmengurangi": 8142,
      "Ġnasi": 8143,
      "Ġframe": 8144,
      "Ġberikutnya": 8145,
      "anggu": 8146,
      "Ġingredients": 8147,
      "akna": 8148,
      "ilding": 8149,
      "Ġeducational": 8150,
      "rupt": 8151,
      "Ġberapa": 8152,
      "Ġcaught": 8153,
      "Ġmale": 8154,
      "Ġmembina": 8155,
      "ĠFamily": 8156,
      "ĠDom": 8157,
      "Ġshipping": 8158,
      "ĠThailand": 8159,
      "-lain": 8160,
      "Ġcenderung": 8161,
      "ĠParty": 8162,
      "ĠHuman": 8163,
      "Ġsuspect": 8164,
      "OK": 8165,
      "Ġvan": 8166,
      "Ġversi": 8167,
      "Ġjoined": 8168,
      "Ġrot": 8169,
      "Ġtechnologies": 8170,
      "ĠPerdana": 8171,
      ".This": 8172,
      "appy": 8173,
      "uktikan": 8174,
      "ĠRo": 8175,
      "Ġjatuh": 8176,
      "ertai": 8177,
      "emerl": 8178,
      "Ġhid": 8179,
      "Ġfailure": 8180,
      "ÙİØ": 8181,
      "Ġlokal": 8182,
      "prise": 8183,
      "Ġdepending": 8184,
      "-an": 8185,
      "Ġreform": 8186,
      "âĢ¦Ċ": 8187,
      "Ġfacility": 8188,
      "Ġtump": 8189,
      "Pada": 8190,
      "Ġgrad": 8191,
      "Ġspeech": 8192,
      "Ġcircumst": 8193,
      "51": 8194,
      "Ġtail": 8195,
      "Ġgonna": 8196,
      "ĠKon": 8197,
      "Ġdecades": 8198,
      "akui": 8199,
      "apping": 8200,
      "ĠNY": 8201,
      "Ġlaugh": 8202,
      "Ġserius": 8203,
      "ujukan": 8204,
      "Ġdibandingkan": 8205,
      "Ġphotograph": 8206,
      "Ġarrang": 8207,
      "Ġistil": 8208,
      "Ġrevenue": 8209,
      "Ġaccounts": 8210,
      "Ġanimal": 8211,
      "iking": 8212,
      "Ġaset": 8213,
      "Ġbaharu": 8214,
      "ĠShop": 8215,
      "Ġcomponents": 8216,
      "Ġalami": 8217,
      "Ġsuasana": 8218,
      "ĠExt": 8219,
      "Ġbatas": 8220,
      "lymp": 8221,
      "estyle": 8222,
      "Ġmengurangkan": 8223,
      "Ġnar": 8224,
      "can": 8225,
      "AND": 8226,
      "ĠShah": 8227,
      "MS": 8228,
      "Ġdepart": 8229,
      "Ġga": 8230,
      "ĠUr": 8231,
      "Ġistilah": 8232,
      "Ġterima": 8233,
      "Ġfamiliar": 8234,
      "Ġhousing": 8235,
      "ĠOld": 8236,
      "Ġmenjual": 8237,
      "Ġcrisis": 8238,
      "untut": 8239,
      "ĠEconom": 8240,
      "ĠExper": 8241,
      "ĠCat": 8242,
      "Ġsebagaimana": 8243,
      "you": 8244,
      "Ġtunai": 8245,
      "Ġmanual": 8246,
      "anji": 8247,
      "-qu": 8248,
      "Ġwajib": 8249,
      "uke": 8250,
      "Ġchief": 8251,
      "ocation": 8252,
      "Ġkampung": 8253,
      "ĠRah": 8254,
      "Ġconsumer": 8255,
      "med": 8256,
      "Ġfiz": 8257,
      "Ġsoalan": 8258,
      "ommod": 8259,
      "Ġbigger": 8260,
      "âĢĻ.": 8261,
      "Ġmanner": 8262,
      "Ġsuami": 8263,
      "Ġsaling": 8264,
      "Ġlocations": 8265,
      "ĠLouis": 8266,
      "Ġharta": 8267,
      "ebihan": 8268,
      "Ġreaders": 8269,
      "Ġille": 8270,
      "ingu": 8271,
      "ĠJim": 8272,
      "ĠTechnology": 8273,
      "ĠBlue": 8274,
      "untungkan": 8275,
      "Ġsigned": 8276,
      "Ġfreedom": 8277,
      "Ġparticipants": 8278,
      "GB": 8279,
      "ĠCOVID": 8280,
      "ye": 8281,
      "Ġjoint": 8282,
      "Ġencourage": 8283,
      "ĠLangkah": 8284,
      "ĠHead": 8285,
      "Ġrapid": 8286,
      "cious": 8287,
      "ĠRest": 8288,
      "uts": 8289,
      "Ġmaximum": 8290,
      "TH": 8291,
      "Ġitulah": 8292,
      "Ġsungai": 8293,
      "%.": 8294,
      "itik": 8295,
      "ĠInstead": 8296,
      "lic": 8297,
      "Ġturnamen": 8298,
      "ĠKedah": 8299,
      "Ġterutamanya": 8300,
      "Ġlunch": 8301,
      "<sup": 8302,
      "akaran": 8303,
      "ĠNOT": 8304,
      "edaran": 8305,
      "reme": 8306,
      "po": 8307,
      "Ġaccommod": 8308,
      "Ġhttps": 8309,
      "entuan": 8310,
      "Ġinstance": 8311,
      "afe": 8312,
      "Ġcinta": 8313,
      "Ġcrypt": 8314,
      "Ġmi": 8315,
      "ĠPembangunan": 8316,
      "Ġoccup": 8317,
      "Ġpurposes": 8318,
      "Ġstre": 8319,
      "Ġimproved": 8320,
      "akil": 8321,
      "Ġunf": 8322,
      "Ġtransm": 8323,
      "Ġbatu": 8324,
      "ejala": 8325,
      "ĠAcadem": 8326,
      "Ġfilem": 8327,
      "Ġexpertise": 8328,
      "Ġmenimbulkan": 8329,
      "Ġadat": 8330,
      "ĠBerikut": 8331,
      "-negara": 8332,
      "Ġma": 8333,
      "adilan": 8334,
      "Ġran": 8335,
      "ĠBahkan": 8336,
      "Ġabad": 8337,
      "Ġlaku": 8338,
      "Ġaffected": 8339,
      "riendly": 8340,
      "Ġcalcul": 8341,
      "Ġkonteks": 8342,
      "Ġtheme": 8343,
      "Ġgrab": 8344,
      "Ġdetailed": 8345,
      "Ġquiet": 8346,
      "poration": 8347,
      "which": 8348,
      "Ġtrees": 8349,
      "rical": 8350,
      "Ġbing": 8351,
      "Ġbusy": 8352,
      "Ġreliable": 8353,
      "Ġvaluable": 8354,
      "ĠDigital": 8355,
      "jack": 8356,
      "atau": 8357,
      "Ġsupposed": 8358,
      "ĠMusic": 8359,
      "yal": 8360,
      "Ġmissing": 8361,
      "ĠKons": 8362,
      "Ġmenguasai": 8363,
      "TC": 8364,
      "-G": 8365,
      "Ġoutput": 8366,
      "amsung": 8367,
      "Ġvisitors": 8368,
      "ulus": 8369,
      "esuaikan": 8370,
      "-Q": 8371,
      "Ġopsi": 8372,
      "ĠLake": 8373,
      "Ġexamin": 8374,
      "Ġappearance": 8375,
      "Ġstores": 8376,
      "Ġmenekan": 8377,
      "ĠDev": 8378,
      "Ġassemb": 8379,
      "with": 8380,
      "Ġbil": 8381,
      "ĠUk": 8382,
      "ĠPENG": 8383,
      "ĠLos": 8384,
      "ĠBud": 8385,
      "Ġdiketahui": 8386,
      "bah": 8387,
      "onic": 8388,
      "Ġinput": 8389,
      "Ġsitting": 8390,
      "iner": 8391,
      "Ġmemutuskan": 8392,
      "Ġintended": 8393,
      "ahanan": 8394,
      "Ġobt": 8395,
      "Ġerror": 8396,
      "Ġperformed": 8397,
      "Ġconsidering": 8398,
      "Ġsteel": 8399,
      "Ġroot": 8400,
      "Ġsequ": 8401,
      "Ġcourses": 8402,
      "Ar": 8403,
      "Ġsebaliknya": 8404,
      "Ġtutorial": 8405,
      "Ġsides": 8406,
      "agang": 8407,
      "Ġappeal": 8408,
      "Ġsenang": 8409,
      "ĠRussia": 8410,
      "Ġaccompl": 8411,
      "ĠLive": 8412,
      "ĠPubl": 8413,
      "list": 8414,
      "Ġthick": 8415,
      "ĠPara": 8416,
      "Ġalcohol": 8417,
      "Ġexpos": 8418,
      "Ġhitam": 8419,
      "Ġemployee": 8420,
      "Ġstabil": 8421,
      "Ġmovies": 8422,
      "enaran": 8423,
      "intang": 8424,
      "ĠHD": 8425,
      "Ġsignif": 8426,
      "ĠWan": 8427,
      "Ġofficer": 8428,
      "ĠUnder": 8429,
      "Ġbull": 8430,
      "Ġath": 8431,
      "Ġanywhere": 8432,
      "ujuh": 8433,
      "ocket": 8434,
      "Ġberpeng": 8435,
      ".R": 8436,
      "net": 8437,
      "Ġyak": 8438,
      "Ġcuma": 8439,
      "Set": 8440,
      "ifications": 8441,
      "ĠPemain": 8442,
      "abiskan": 8443,
      "Ġpajak": 8444,
      "ĠPot": 8445,
      "Ġalum": 8446,
      "Ġsets": 8447,
      "Ġourselves": 8448,
      "Ġpergerakan": 8449,
      "Ġtells": 8450,
      "noon": 8451,
      "ician": 8452,
      "Ġliqu": 8453,
      "Ġponsel": 8454,
      "ahat": 8455,
      "Ġreference": 8456,
      "Ġconsequ": 8457,
      "Ġroof": 8458,
      "Ġrat": 8459,
      "asm": 8460,
      "Ġdecor": 8461,
      "Ġesc": 8462,
      "Ġsupporting": 8463,
      "itmen": 8464,
      "ENG": 8465,
      "ĠReport": 8466,
      "Ġinfrastructure": 8467,
      "-re": 8468,
      "akw": 8469,
      "Ġberusia": 8470,
      "ĠInstagram": 8471,
      "orough": 8472,
      "Ġtakut": 8473,
      "Ġmerah": 8474,
      "Ġsolar": 8475,
      "Ġmig": 8476,
      "Ġmeat": 8477,
      "umption": 8478,
      "Ġstopped": 8479,
      "Ġcocok": 8480,
      "oung": 8481,
      "emy": 8482,
      "Ġcompetitive": 8483,
      "ĠBob": 8484,
      "ĠSecond": 8485,
      "Ber": 8486,
      "ensions": 8487,
      "aluan": 8488,
      "ga": 8489,
      "raq": 8490,
      "ĠModel": 8491,
      "inct": 8492,
      "Ġjual": 8493,
      "ĠTok": 8494,
      "Ġpractical": 8495,
      "All": 8496,
      "Ġnine": 8497,
      "Ġwealth": 8498,
      "Ġfavour": 8499,
      "ĠDoes": 8500,
      "Ġadults": 8501,
      ",Ċ": 8502,
      "Ġagent": 8503,
      "Ġberbasis": 8504,
      "Ġkarakter": 8505,
      "avy": 8506,
      "Ġelement": 8507,
      "oda": 8508,
      "ĠSports": 8509,
      "encan": 8510,
      "ĠBat": 8511,
      "Ġmengadakan": 8512,
      "Ġprison": 8513,
      "Ġawesome": 8514,
      "upid": 8515,
      "Ġserving": 8516,
      "Ġcombined": 8517,
      "ĠPremi": 8518,
      "Ġapi": 8519,
      "ERS": 8520,
      "Ġbringing": 8521,
      "baiki": 8522,
      "Ġpengembangan": 8523,
      "Ġcolour": 8524,
      "Ġdecre": 8525,
      "Ġpokok": 8526,
      "Ġregional": 8527,
      "eler": 8528,
      "Ġbersih": 8529,
      "Ġppl": 8530,
      "eated": 8531,
      "osoph": 8532,
      "Ġberpikir": 8533,
      "rad": 8534,
      "alakkan": 8535,
      "ĠThrough": 8536,
      "Ġpossibly": 8537,
      "ĠGh": 8538,
      "ctors": 8539,
      "tivity": 8540,
      "ĠTown": 8541,
      "ĠQue": 8542,
      "ĠWatch": 8543,
      "arj": 8544,
      "Ġrealize": 8545,
      "merce": 8546,
      "espite": 8547,
      "alang": 8548,
      "Ġmic": 8549,
      "Ġnuclear": 8550,
      "Ġapproved": 8551,
      "ĠYO": 8552,
      "ĠPemer": 8553,
      "aknya": 8554,
      "ĠKan": 8555,
      "Ġreduced": 8556,
      "Ġbergabung": 8557,
      "alin": 8558,
      "Ġflight": 8559,
      "Ġapproximately": 8560,
      "ĠVict": 8561,
      "ĠPerl": 8562,
      "syen": 8563,
      "okes": 8564,
      "Ġkebijakan": 8565,
      "Ġreligion": 8566,
      "-|": 8567,
      "54": 8568,
      "Ġgod": 8569,
      "ĠAdminist": 8570,
      "Ġcharged": 8571,
      "Ġperuntukan": 8572,
      "ĠJeff": 8573,
      "Ġpep": 8574,
      "ĠBahagian": 8575,
      "Ġcrime": 8576,
      "Ġnampak": 8577,
      "otal": 8578,
      "ĠCath": 8579,
      "ĠJon": 8580,
      "Ġdikeluarkan": 8581,
      "Ġprepare": 8582,
      "Ġub": 8583,
      "ĠAtt": 8584,
      "Ġviolence": 8585,
      "xi": 8586,
      "emic": 8587,
      "PD": 8588,
      "utar": 8589,
      "Ġpencapaian": 8590,
      "ajukan": 8591,
      "Ġsurgery": 8592,
      "atihan": 8593,
      "Ġhealthcare": 8594,
      "Ġantarabangsa": 8595,
      "ambarkan": 8596,
      "Ġcauses": 8597,
      "emua": 8598,
      "utang": 8599,
      "ĠJawatan": 8600,
      "Ġgear": 8601,
      "ĠAlam": 8602,
      "Ġinvestigation": 8603,
      "Ġfif": 8604,
      "Ġmerasakan": 8605,
      "ĠAfrican": 8606,
      "Jika": 8607,
      "rooms": 8608,
      "Ġkad": 8609,
      "ui": 8610,
      "onc": 8611,
      "Ġpembinaan": 8612,
      "Ġkertas": 8613,
      "olehan": 8614,
      "-rel": 8615,
      "ĠJalan": 8616,
      "Ġathlet": 8617,
      "Ġsymptoms": 8618,
      "ĠFull": 8619,
      "ĠOlymp": 8620,
      "Not": 8621,
      "angkau": 8622,
      "Ġbrowser": 8623,
      "iples": 8624,
      "isensi": 8625,
      "Ġgoods": 8626,
      "Ġkekurangan": 8627,
      "Ġcari": 8628,
      "elan": 8629,
      "Ġyesterday": 8630,
      "Ġchoices": 8631,
      "ello": 8632,
      "Ġacknow": 8633,
      "AF": 8634,
      "Ġmemasang": 8635,
      "ĠPolice": 8636,
      "Ġlos": 8637,
      "ĠWalau": 8638,
      "Ġoblig": 8639,
      "Ġdiperc": 8640,
      "Ġayam": 8641,
      "etime": 8642,
      "ĠBag": 8643,
      "Ġmenguntungkan": 8644,
      "uzz": 8645,
      "eas": 8646,
      "ĠEk": 8647,
      "Ġmuslim": 8648,
      "ĠSupport": 8649,
      "Ġsuitable": 8650,
      "ĠWeek": 8651,
      "Ġmini": 8652,
      "Ġrecovery": 8653,
      "ns": 8654,
      "enj": 8655,
      "ĠPerb": 8656,
      "uruan": 8657,
      "abit": 8658,
      "Ġupdated": 8659,
      "ĠFurther": 8660,
      "ĠIbu": 8661,
      "ilit": 8662,
      "Ġlunak": 8663,
      "Ġulang": 8664,
      "Ġwajah": 8665,
      "Ġkecuali": 8666,
      "Ġmemudahkan": 8667,
      "loy": 8668,
      "ĠSeorang": 8669,
      "Ġintroduced": 8670,
      "Ġproduksi": 8671,
      "Ex": 8672,
      "Ġdesire": 8673,
      "Ġknowing": 8674,
      "ĠBesar": 8675,
      "ĠSou": 8676,
      "ĠPT": 8677,
      "ĠMi": 8678,
      "Ġinnovative": 8679,
      "53": 8680,
      "Ġsac": 8681,
      "Ġquot": 8682,
      "Ġsebaik": 8683,
      "98": 8684,
      "Ġindah": 8685,
      "ileg": 8686,
      "RS": 8687,
      "Ġmerujuk": 8688,
      "prene": 8689,
      "Ġsalt": 8690,
      "Ġlaman": 8691,
      "Ġwash": 8692,
      "Ġkomponen": 8693,
      "67": 8694,
      "Ġhers": 8695,
      "Ġlaunched": 8696,
      "Ġpemilik": 8697,
      "oil": 8698,
      "Ġagreed": 8699,
      "Ġlived": 8700,
      "Ġbelief": 8701,
      "Ġberdiri": 8702,
      "ĠTurn": 8703,
      "Ġsister": 8704,
      "cean": 8705,
      "inet": 8706,
      "umpulkan": 8707,
      "EMB": 8708,
      "ibilities": 8709,
      "ergi": 8710,
      "ancar": 8711,
      "ĠPresiden": 8712,
      "Ġumur": 8713,
      "Ġbukti": 8714,
      "Ġforced": 8715,
      "Ġmeneg": 8716,
      "Ġdesigns": 8717,
      "Ġfourth": 8718,
      "Ġselesai": 8719,
      "Ġmenunggu": 8720,
      "Ġbroken": 8721,
      "Ġindustrial": 8722,
      "ĠLebih": 8723,
      "Ġkalah": 8724,
      "akup": 8725,
      "rac": 8726,
      "alo": 8727,
      "Ġpersekitaran": 8728,
      "Ġmine": 8729,
      "Ġbagaimanapun": 8730,
      "Ġstanding": 8731,
      "Ġconcerned": 8732,
      "ĠAff": 8733,
      "-sp": 8734,
      "Ġobtain": 8735,
      "inginan": 8736,
      "Ġtherapy": 8737,
      "do": 8738,
      "Ġaid": 8739,
      "ukit": 8740,
      "Ġinspect": 8741,
      "opi": 8742,
      "ĠMember": 8743,
      "Ġsupported": 8744,
      "Ġfeedback": 8745,
      "olong": 8746,
      "Ġmatters": 8747,
      "Ġepisode": 8748,
      "Ġayah": 8749,
      "Ġbaca": 8750,
      "Ġprocessing": 8751,
      "Ġdelivered": 8752,
      "Ġtheory": 8753,
      "ĠExc": 8754,
      "Ġtingk": 8755,
      "ĠSD": 8756,
      "Ġbrands": 8757,
      "olusi": 8758,
      "Ġproposed": 8759,
      "Ġstim": 8760,
      "Ġappeared": 8761,
      "ĠMD": 8762,
      ".\"Ċ": 8763,
      "ĠUsing": 8764,
      "ĠHard": 8765,
      "Ġkayu": 8766,
      "Ġseconds": 8767,
      "ĠBitcoin": 8768,
      "ĠCurr": 8769,
      "ĠKasino": 8770,
      "Ġberharap": 8771,
      "Ġwriter": 8772,
      "Ġharian": 8773,
      "Ġlawan": 8774,
      "Ġlahir": 8775,
      "Ġtimbul": 8776,
      "Ġ..": 8777,
      "endiri": 8778,
      "Ġreplace": 8779,
      "Ġstudio": 8780,
      "Ġfakta": 8781,
      "Ġpemahaman": 8782,
      "Ġkematian": 8783,
      "bet": 8784,
      "Ġterpaksa": 8785,
      "aing": 8786,
      "Ġmenangani": 8787,
      "Ġjarak": 8788,
      "Ġbermakna": 8789,
      "Ġhate": 8790,
      "Ġbekas": 8791,
      "ĠAuthor": 8792,
      "icul": 8793,
      "Ġwithdr": 8794,
      "cegah": 8795,
      "Ġking": 8796,
      "ĠHand": 8797,
      "ĠFederal": 8798,
      "Ġtests": 8799,
      "ĠEp": 8800,
      "Ġidentity": 8801,
      "Ġinternasional": 8802,
      "uni": 8803,
      "Ġberupa": 8804,
      "elesaian": 8805,
      "ĠIraq": 8806,
      "Ġadvertising": 8807,
      "Ġenjoyed": 8808,
      "Ġperspective": 8809,
      "ĠMari": 8810,
      "Ġrenew": 8811,
      "esth": 8812,
      "Ġphil": 8813,
      "inginkan": 8814,
      "Ġcutting": 8815,
      "Ġvary": 8816,
      "Ġtertinggi": 8817,
      "Ġdrivers": 8818,
      "Ġbike": 8819,
      "Ġplate": 8820,
      "Ġmelindungi": 8821,
      "Ġmilk": 8822,
      "ĠHold": 8823,
      "eller": 8824,
      "Ġkam": 8825,
      "eting": 8826,
      "Ġautomatically": 8827,
      "rot": 8828,
      "ĠSeries": 8829,
      "itur": 8830,
      "Ġfle": 8831,
      "Ġgaji": 8832,
      "kand": 8833,
      "ĠCho": 8834,
      "ajuk": 8835,
      "ĠMov": 8836,
      "Ġtrouble": 8837,
      "ĠSumber": 8838,
      "Ġexecutive": 8839,
      "erior": 8840,
      "Ġspeaking": 8841,
      "ĠRE": 8842,
      "ARA": 8843,
      "Ġadministr": 8844,
      "ĠSoft": 8845,
      "Ġjudge": 8846,
      "Ġjur": 8847,
      "ebuah": 8848,
      "Ġdistribution": 8849,
      "emas": 8850,
      "Ġtea": 8851,
      "Ġlaki": 8852,
      "uters": 8853,
      "Ġmelebih": 8854,
      "Ġpertanian": 8855,
      "enom": 8856,
      "Ġadvis": 8857,
      "ĠProm": 8858,
      "Ġimpl": 8859,
      "aped": 8860,
      "Ġkreatif": 8861,
      "Ġakaun": 8862,
      "Bel": 8863,
      "cement": 8864,
      "ĠGerman": 8865,
      "reprene": 8866,
      "Ġtank": 8867,
      "Ġkanan": 8868,
      "Ġtra": 8869,
      "Ġkak": 8870,
      "ireless": 8871,
      "riz": 8872,
      "ĠLo": 8873,
      "Ġoccas": 8874,
      "aration": 8875,
      "elasan": 8876,
      "Ġchip": 8877,
      "Ġcoord": 8878,
      "Ġflash": 8879,
      "ĠPerkhidmatan": 8880,
      "yo": 8881,
      "Ġpembuatan": 8882,
      "aints": 8883,
      "ĠSecret": 8884,
      "ien": 8885,
      "Ġhat": 8886,
      "Ġhyd": 8887,
      "uling": 8888,
      "ĠFund": 8889,
      "Ġgerakan": 8890,
      "Ġrandom": 8891,
      "bez": 8892,
      "Ġfasil": 8893,
      "imia": 8894,
      "Ġinstallation": 8895,
      "Ġoutdoor": 8896,
      "Ġsedia": 8897,
      "Ġveter": 8898,
      "inder": 8899,
      "Ġmatlamat": 8900,
      "antaran": 8901,
      "ĠJoe": 8902,
      "ĠNetwork": 8903,
      "ĠGermany": 8904,
      "Ġsettings": 8905,
      "ongsi": 8906,
      "Ġcomplic": 8907,
      "Ġcriminal": 8908,
      "eliti": 8909,
      "rome": 8910,
      "Ġberterusan": 8911,
      "Ad": 8912,
      "Ġbijak": 8913,
      "FC": 8914,
      "Ġstandar": 8915,
      "Ġberkualitas": 8916,
      "Ġplatforms": 8917,
      "Ġbertanya": 8918,
      "Ġfruit": 8919,
      "Ġlit": 8920,
      "ĠPop": 8921,
      "standing": 8922,
      "ĠJo": 8923,
      "ĠBN": 8924,
      "Ġperistiwa": 8925,
      "/d": 8926,
      "Ġtrig": 8927,
      "ĠMungkin": 8928,
      "Ġisland": 8929,
      "ĠSay": 8930,
      "Ġmencegah": 8931,
      "awanan": 8932,
      "ĠFrance": 8933,
      "Ġtema": 8934,
      "ectives": 8935,
      "Ġeveryday": 8936,
      "Ġsedangkan": 8937,
      "Ġperilaku": 8938,
      "Ġdraft": 8939,
      "Ġeleg": 8940,
      "ĠConc": 8941,
      "Ġwearing": 8942,
      "-and": 8943,
      "site": 8944,
      "epak": 8945,
      "Ġdiscovered": 8946,
      "Ġrisks": 8947,
      "ĠJepun": 8948,
      "Ġsg": 8949,
      "edy": 8950,
      "Ġmeliputi": 8951,
      "ĠCup": 8952,
      "Ġgall": 8953,
      "Ġmonthly": 8954,
      "Ġdollars": 8955,
      "Ġdihad": 8956,
      "ells": 8957,
      "Ġdapatkan": 8958,
      "Ġafternoon": 8959,
      "Ġpassword": 8960,
      "Ġchain": 8961,
      "ĠEnergy": 8962,
      "Ġkil": 8963,
      "Ġfabric": 8964,
      "Ġkategori": 8965,
      "ĠChief": 8966,
      "Ġtelling": 8967,
      "ĠHear": 8968,
      "friend": 8969,
      "igen": 8970,
      "ĠInn": 8971,
      "Ġconstit": 8972,
      "Ġcul": 8973,
      "Ġdatabase": 8974,
      "Ġupdates": 8975,
      "ubuhkan": 8976,
      "Ġmac": 8977,
      "akili": 8978,
      "Ġflag": 8979,
      "Ġinilah": 8980,
      "Ġlibrary": 8981,
      "Ġpregn": 8982,
      "inum": 8983,
      "Ġincident": 8984,
      "Ġgambling": 8985,
      "Ġorders": 8986,
      "Ġgak": 8987,
      "Ġspin": 8988,
      "Ġsuperv": 8989,
      "ogen": 8990,
      "aser": 8991,
      "Ġfunctions": 8992,
      "ĠCost": 8993,
      "ĠMartin": 8994,
      "limen": 8995,
      "arn": 8996,
      "Ġperjanjian": 8997,
      "Ġassets": 8998,
      "Ġenth": 8999,
      "eld": 9000,
      "ĠHen": 9001,
      "lette": 9002,
      "Or": 9003,
      "ĠVirginia": 9004,
      "ĠPihak": 9005,
      "ĠUnit": 9006,
      "ĠAT": 9007,
      "acara": 9008,
      "Ġcategory": 9009,
      "Ġkul": 9010,
      "ĠEff": 9011,
      "%)": 9012,
      "luding": 9013,
      "ĠDim": 9014,
      "abetes": 9015,
      "areness": 9016,
      "isco": 9017,
      "/c": 9018,
      "ĠJapanese": 9019,
      "OH": 9020,
      "Ġtablet": 9021,
      "vi": 9022,
      "Ġmanufacturing": 9023,
      "Ġsignifikan": 9024,
      "Ġcommission": 9025,
      "rees": 9026,
      "unei": 9027,
      "andon": 9028,
      "Ġditemukan": 9029,
      "Ġdukungan": 9030,
      "Ġprem": 9031,
      "aminan": 9032,
      "Ġtalian": 9033,
      "Ġmurder": 9034,
      "bur": 9035,
      "ĠProses": 9036,
      "emporary": 9037,
      "Ġcircumstances": 9038,
      "Ġlew": 9039,
      "this": 9040,
      "ĠPerh": 9041,
      "Ġswim": 9042,
      "Ġtwice": 9043,
      "Ġtempl": 9044,
      "Ġauthority": 9045,
      "OB": 9046,
      "uits": 9047,
      "Ġagenda": 9048,
      "pers": 9049,
      "Ġdrugs": 9050,
      "okan": 9051,
      "Ġtant": 9052,
      "amkan": 9053,
      "Ġharapan": 9054,
      "Ġprotected": 9055,
      "gl": 9056,
      "ĠBukan": 9057,
      "PN": 9058,
      "ĠWr": 9059,
      "uhu": 9060,
      "âĦ": 9061,
      "ĠKomp": 9062,
      "Ġarrived": 9063,
      "Ġhiburan": 9064,
      "irian": 9065,
      "Ġtrav": 9066,
      "erves": 9067,
      "ĠFil": 9068,
      "ĠTherefore": 9069,
      "angkaian": 9070,
      "Ġsumm": 9071,
      "town": 9072,
      "atuhi": 9073,
      "Ġmeal": 9074,
      "zed": 9075,
      "Ġplanet": 9076,
      "-U": 9077,
      "Ġ~": 9078,
      "udio": 9079,
      "lywood": 9080,
      "Ġjoy": 9081,
      "Ġmenjawab": 9082,
      "point": 9083,
      "Ġworst": 9084,
      "ĠPengurusan": 9085,
      "lon": 9086,
      "Ġpengel": 9087,
      "Ġbegins": 9088,
      "ÃŃ": 9089,
      "Don": 9090,
      "Ùħ": 9091,
      "uluh": 9092,
      "Ġpenerb": 9093,
      "Ġrad": 9094,
      "Ġcreation": 9095,
      "Ġperan": 9096,
      "Ġmelawan": 9097,
      "-kira": 9098,
      "ĠPack": 9099,
      "Ġretire": 9100,
      "geris": 9101,
      "una": 9102,
      "Ġditentukan": 9103,
      "Ġinterpret": 9104,
      "ews": 9105,
      "ĠViet": 9106,
      "Ġlicense": 9107,
      "Ġmelebihi": 9108,
      "gage": 9109,
      "Ġaja": 9110,
      "Peng": 9111,
      "that": 9112,
      "Ġpemeriksaan": 9113,
      "ĠForex": 9114,
      "Ġtruck": 9115,
      "Ġpenal": 9116,
      "jaya": 9117,
      "Ġentertainment": 9118,
      "ekolah": 9119,
      "Ġidentified": 9120,
      "Ġaccurate": 9121,
      "Ġfizikal": 9122,
      "iwa": 9123,
      "Ġplain": 9124,
      "Ġyakni": 9125,
      "Ġends": 9126,
      "edar": 9127,
      "Ġmengak": 9128,
      "Ġturns": 9129,
      "Ġresponden": 9130,
      "Ġkinds": 9131,
      "-al": 9132,
      "Ġpintu": 9133,
      "TER": 9134,
      "ullah": 9135,
      "indah": 9136,
      "kins": 9137,
      "Ġdibawa": 9138,
      "ĠCentre": 9139,
      "Ġgul": 9140,
      "ĠAccess": 9141,
      "endalikan": 9142,
      "iams": 9143,
      "rete": 9144,
      "Ġtoko": 9145,
      "ĠGer": 9146,
      "ĠStep": 9147,
      "nyata": 9148,
      "Ġsuku": 9149,
      "Ġpelayanan": 9150,
      "Ġmendaftar": 9151,
      "*,": 9152,
      "ĠSqu": 9153,
      "Ġproviders": 9154,
      "ĠSH": 9155,
      "180": 9156,
      "gers": 9157,
      "pet": 9158,
      "Ġmenolak": 9159,
      "Ġshock": 9160,
      "Ġclinical": 9161,
      "Ġmemul": 9162,
      "Ġcarried": 9163,
      "oston": 9164,
      "Ġrough": 9165,
      "Ġtho": 9166,
      "Ġduit": 9167,
      "ĠWay": 9168,
      "acaan": 9169,
      "Ġstrip": 9170,
      "Ġvacc": 9171,
      "Ġsurf": 9172,
      "Ġdoors": 9173,
      "Ġmenyimpan": 9174,
      "Ġexplained": 9175,
      "anal": 9176,
      "ĠEqu": 9177,
      "Ġcloser": 9178,
      "Ġpentadbiran": 9179,
      "Ġrata": 9180,
      "ĠBonus": 9181,
      "epsi": 9182,
      "Ġperlindungan": 9183,
      "Ġmempertahankan": 9184,
      "Ġhistorical": 9185,
      "Ġusual": 9186,
      "ĠAward": 9187,
      ".e": 9188,
      "Ġmenyampaikan": 9189,
      "Ġofficers": 9190,
      "Ġcritic": 9191,
      "imbing": 9192,
      "ĠPhot": 9193,
      "Ġprocedure": 9194,
      "ocolate": 9195,
      "Ket": 9196,
      "Ġ;": 9197,
      "ĠOR": 9198,
      "Ġmewakili": 9199,
      "Ġmath": 9200,
      "Ġintent": 9201,
      "Ġissued": 9202,
      "Ġsustainable": 9203,
      "linya": 9204,
      "alled": 9205,
      "umpul": 9206,
      "Ġiron": 9207,
      "asik": 9208,
      "Ġdiverse": 9209,
      "Ġpenyelidikan": 9210,
      "emui": 9211,
      "bre": 9212,
      "ersial": 9213,
      "Ġresource": 9214,
      "Ġimmig": 9215,
      "Ġfulf": 9216,
      "ĠMuseum": 9217,
      "Ġkamp": 9218,
      "Ġlights": 9219,
      "BD": 9220,
      "ighter": 9221,
      ".E": 9222,
      "iarkan": 9223,
      "ares": 9224,
      "enggan": 9225,
      "ĠStat": 9226,
      "Ġengineering": 9227,
      "Ġcrazy": 9228,
      "Ġpendek": 9229,
      "Ġparent": 9230,
      "accarat": 9231,
      "Ġhang": 9232,
      "ĠParis": 9233,
      "ĠResp": 9234,
      "Ġchannel": 9235,
      "ĠPage": 9236,
      "Ġmarg": 9237,
      "ĠNote": 9238,
      "Ġchicken": 9239,
      "itis": 9240,
      "ajikan": 9241,
      "Ġimagine": 9242,
      "ĠLin": 9243,
      "othing": 9244,
      "ĠPenger": 9245,
      "Ing": 9246,
      "Ġtitik": 9247,
      "agia": 9248,
      "ĠKebangsaan": 9249,
      "nic": 9250,
      "ingly": 9251,
      "imen": 9252,
      "Ġdemo": 9253,
      "edaan": 9254,
      "Ġloyal": 9255,
      "irely": 9256,
      "Ġreject": 9257,
      "Ġgender": 9258,
      "ĠYah": 9259,
      "Ġmassive": 9260,
      "Ġrm": 9261,
      "Ġdihasilkan": 9262,
      "Ġpulang": 9263,
      "Ġpengk": 9264,
      "ĠInggeris": 9265,
      "97": 9266,
      "Ġdetermined": 9267,
      "ayat": 9268,
      "ĠWild": 9269,
      "yarat": 9270,
      "isip": 9271,
      "Ġternyata": 9272,
      "Ġtelevision": 9273,
      "Ġhousehold": 9274,
      "Ġcek": 9275,
      "Ġneck": 9276,
      "ĠBagaimana": 9277,
      "ĠPac": 9278,
      "Ġcompos": 9279,
      "Ġbuildings": 9280,
      "Ġfantastic": 9281,
      "Ġsick": 9282,
      "âĦ¢": 9283,
      "ĠAR": 9284,
      "Ġaliran": 9285,
      "manfaat": 9286,
      "Ġfoods": 9287,
      "ĠBaru": 9288,
      "Ġmekan": 9289,
      "ĠAnak": 9290,
      "Ġregistered": 9291,
      "mal": 9292,
      "ossible": 9293,
      "Ġkeberuntungan": 9294,
      "IB": 9295,
      "Ġhyp": 9296,
      "Ġinstalled": 9297,
      "ĠMexico": 9298,
      "Ġrambut": 9299,
      "Ġpembelian": 9300,
      "Ġtentunya": 9301,
      "Ġfrequently": 9302,
      "folio": 9303,
      "Ġseluler": 9304,
      "Ġchosen": 9305,
      "esuaian": 9306,
      "enarai": 9307,
      "bezaan": 9308,
      "ĠMur": 9309,
      "Ġbasket": 9310,
      "Ġbasically": 9311,
      "Â°": 9312,
      "ĠPalest": 9313,
      "Ġhundreds": 9314,
      "ĠIV": 9315,
      "argaan": 9316,
      "Ġgreatest": 9317,
      "Ġremaining": 9318,
      "Ġq": 9319,
      "Ġboat": 9320,
      "ĠQual": 9321,
      "ĠDespite": 9322,
      "Ġvend": 9323,
      "Ġkontrak": 9324,
      "Ġhappening": 9325,
      "Ġregularly": 9326,
      "long": 9327,
      "sur": 9328,
      "Ġsudut": 9329,
      "Ġrice": 9330,
      ".âĢĿĊ": 9331,
      "Ġtasks": 9332,
      "entic": 9333,
      "ĠRight": 9334,
      "Ġappreciate": 9335,
      "OG": 9336,
      "Ġstretch": 9337,
      "Ġmachines": 9338,
      "afah": 9339,
      "ĠAngeles": 9340,
      "olis": 9341,
      "ĠBM": 9342,
      "Ġobvious": 9343,
      "Ġpejabat": 9344,
      "Ġstars": 9345,
      "ĠSpe": 9346,
      "ĠBoy": 9347,
      "Ġconducted": 9348,
      "Ġguarantee": 9349,
      "ulusan": 9350,
      "obet": 9351,
      "Ġtreated": 9352,
      "Ġalternatif": 9353,
      "Ġlin": 9354,
      "Ġmendalam": 9355,
      "Ġdangerous": 9356,
      "Ġgraf": 9357,
      "Ġreceiving": 9358,
      "Ġattacks": 9359,
      "ahari": 9360,
      "Ġaffordable": 9361,
      "Ġplug": 9362,
      "Ġpositions": 9363,
      "ĠMiddle": 9364,
      "Ġdinyatakan": 9365,
      "Ġneur": 9366,
      "Ġexcess": 9367,
      "Ġextensive": 9368,
      "Ġpoin": 9369,
      "ĠBrunei": 9370,
      "unction": 9371,
      "ĠPS": 9372,
      "ASA": 9373,
      "ĠJawatankuasa": 9374,
[...]
